{
  "version": "1.0",
  "truncation": null,
  "padding": null,
  "added_tokens": [
    {
      "id": 0,
      "content": "[UNK]",
      "single_word": false,
      "lstrip": false,
      "rstrip": false,
      "normalized": false,
      "special": true
    },
    {
      "id": 1,
      "content": "[PAD]",
      "single_word": false,
      "lstrip": false,
      "rstrip": false,
      "normalized": false,
      "special": true
    },
    {
      "id": 2,
      "content": "[BOS]",
      "single_word": false,
      "lstrip": false,
      "rstrip": false,
      "normalized": false,
      "special": true
    },
    {
      "id": 3,
      "content": "[EOS]",
      "single_word": false,
      "lstrip": false,
      "rstrip": false,
      "normalized": false,
      "special": true
    }
  ],
  "normalizer": null,
  "pre_tokenizer": {
    "type": "Whitespace"
  },
  "post_processor": null,
  "decoder": null,
  "model": {
    "type": "BPE",
    "dropout": null,
    "unk_token": "[UNK]",
    "continuing_subword_prefix": null,
    "end_of_word_suffix": null,
    "fuse_unk": false,
    "byte_fallback": false,
    "ignore_merges": false,
    "vocab": {
      "[UNK]": 0,
      "[PAD]": 1,
      "[BOS]": 2,
      "[EOS]": 3,
      "!": 4,
      "&": 5,
      "'": 6,
      "(": 7,
      ")": 8,
      ",": 9,
      "-": 10,
      ".": 11,
      "0": 12,
      "1": 13,
      "2": 14,
      "3": 15,
      "4": 16,
      "5": 17,
      "6": 18,
      "7": 19,
      "8": 20,
      "9": 21,
      ":": 22,
      ";": 23,
      "<": 24,
      ">": 25,
      "?": 26,
      "A": 27,
      "B": 28,
      "C": 29,
      "D": 30,
      "E": 31,
      "F": 32,
      "G": 33,
      "H": 34,
      "I": 35,
      "J": 36,
      "K": 37,
      "L": 38,
      "M": 39,
      "N": 40,
      "O": 41,
      "P": 42,
      "Q": 43,
      "R": 44,
      "S": 45,
      "T": 46,
      "U": 47,
      "V": 48,
      "W": 49,
      "X": 50,
      "Y": 51,
      "Z": 52,
      "_": 53,
      "`": 54,
      "a": 55,
      "b": 56,
      "c": 57,
      "d": 58,
      "e": 59,
      "f": 60,
      "g": 61,
      "h": 62,
      "i": 63,
      "j": 64,
      "k": 65,
      "l": 66,
      "m": 67,
      "n": 68,
      "o": 69,
      "p": 70,
      "q": 71,
      "r": 72,
      "s": 73,
      "t": 74,
      "u": 75,
      "v": 76,
      "w": 77,
      "x": 78,
      "y": 79,
      "z": 80,
      "|": 81,
      "in": 82,
      "th": 83,
      "an": 84,
      "er": 85,
      "re": 86,
      "on": 87,
      "en": 88,
      "ou": 89,
      "es": 90,
      "at": 91,
      "to": 92,
      "ing": 93,
      "al": 94,
      "the": 95,
      "or": 96,
      "and": 97,
      "ti": 98,
      "ar": 99,
      "is": 100,
      "ed": 101,
      "st": 102,
      "you": 103,
      "ic": 104,
      "it": 105,
      "of": 106,
      "le": 107,
      "om": 108,
      "us": 109,
      "ac": 110,
      "as": 111,
      "et": 112,
      "ent": 113,
      "for": 114,
      "ch": 115,
      "el": 116,
      "ro": 117,
      "il": 118,
      "ion": 119,
      "ve": 120,
      "ers": 121,
      "your": 122,
      "ow": 123,
      "ig": 124,
      "ad": 125,
      "am": 126,
      "ec": 127,
      "tion": 128,
      "su": 129,
      "Th": 130,
      "ith": 131,
      "ag": 132,
      "ol": 133,
      "ess": 134,
      "are": 135,
      "ay": 136,
      "un": 137,
      "id": 138,
      "ly": 139,
      "ce": 140,
      "ation": 141,
      "ver": 142,
      "with": 143,
      "com": 144,
      "ri": 145,
      "em": 146,
      "ts": 147,
      "ab": 148,
      "be": 149,
      "ex": 150,
      "wh": 151,
      "pro": 152,
      "lo": 153,
      "our": 154,
      "ate": 155,
      "con": 156,
      "mo": 157,
      "that": 158,
      "ci": 159,
      "op": 160,
      "im": 161,
      "ir": 162,
      "se": 163,
      "so": 164,
      "ur": 165,
      "ter": 166,
      "fr": 167,
      "tom": 168,
      "ke": 169,
      "ul": 170,
      "In": 171,
      "The": 172,
      "igh": 173,
      "tr": 174,
      "ment": 175,
      "ill": 176,
      "ustom": 177,
      "oo": 178,
      "cial": 179,
      "ne": 180,
      "out": 181,
      "can": 182,
      "pl": 183,
      "sh": 184,
      "ap": 185,
      "te": 186,
      "ure": 187,
      "est": 188,
      "oun": 189,
      "du": 190,
      "we": 191,
      "up": 192,
      "if": 193,
      "all": 194,
      "po": 195,
      "custom": 196,
      "20": 197,
      "ia": 198,
      "me": 199,
      "qu": 200,
      "mar": 201,
      "ut": 202,
      "per": 203,
      "de": 204,
      "ity": 205,
      "form": 206,
      "pr": 207,
      "iness": 208,
      "usiness": 209,
      "comp": 210,
      "art": 211,
      "ha": 212,
      "by": 213,
      "ket": 214,
      "one": 215,
      "ma": 216,
      "ere": 217,
      "no": 218,
      "res": 219,
      "di": 220,
      "end": 221,
      "age": 222,
      "from": 223,
      "wor": 224,
      "por": 225,
      "tor": 226,
      "ack": 227,
      "str": 228,
      "co": 229,
      "li": 230,
      "tic": 231,
      "business": 232,
      "00": 233,
      "ds": 234,
      "ant": 235,
      "ies": 236,
      "sc": 237,
      "ain": 238,
      "social": 239,
      "ast": 240,
      "ge": 241,
      "ven": 242,
      "br": 243,
      "ld": 244,
      "their": 245,
      "able": 246,
      "any": 247,
      "ear": 248,
      "ric": 249,
      "more": 250,
      "edia": 251,
      "duc": 252,
      "ence": 253,
      "ide": 254,
      "Ch": 255,
      "iz": 256,
      "pe": 257,
      "ign": 258,
      "will": 259,
      "get": 260,
      "market": 261,
      "cess": 262,
      "ive": 263,
      "tions": 264,
      "this": 265,
      "ue": 266,
      "have": 267,
      "ell": 268,
      "au": 269,
      "how": 270,
      "fe": 271,
      "gr": 272,
      "ine": 273,
      "port": 274,
      "ther": 275,
      "cre": 276,
      "ie": 277,
      "ans": 278,
      "cont": 279,
      "ance": 280,
      "king": 281,
      "cl": 282,
      "eny": 283,
      "ail": 284,
      "ally": 285,
      "ace": 286,
      "um": 287,
      "ef": 288,
      "der": 289,
      "Keny": 290,
      "ree": 291,
      "customers": 292,
      "do": 293,
      "AI": 294,
      "act": 295,
      "etric": 296,
      "ks": 297,
      "ces": 298,
      "row": 299,
      "Wh": 300,
      "has": 301,
      "To": 302,
      "ten": 303,
      "ps": 304,
      "ple": 305,
      "ach": 306,
      "ome": 307,
      "media": 308,
      "ice": 309,
      "ight": 310,
      "fer": 311,
      "etrics": 312,
      "202": 313,
      "its": 314,
      "go": 315,
      "ub": 316,
      "fin": 317,
      "dat": 318,
      "ights": 319,
      "sp": 320,
      "St": 321,
      "Sa": 322,
      "..": 323,
      "use": 324,
      "time": 325,
      "hel": 326,
      "new": 327,
      "ement": 328,
      "produc": 329,
      "ich": 330,
      "ding": 331,
      "mon": 332,
      "they": 333,
      "ser": 334,
      "fric": 335,
      "gh": 336,
      "metrics": 337,
      "ould": 338,
      "Re": 339,
      "ins": 340,
      "rec": 341,
      "ite": 342,
      "ateg": 343,
      "ren": 344,
      "not": 345,
      "An": 346,
      "ever": 347,
      "Afric": 348,
      "customer": 349,
      "ough": 350,
      "av": 351,
      "ays": 352,
      "ations": 353,
      "bu": 354,
      "over": 355,
      "aly": 356,
      "vers": 357,
      "about": 358,
      "ting": 359,
      "ll": 360,
      "boo": 361,
      "coun": 362,
      "scri": 363,
      "he": 364,
      "ep": 365,
      "ound": 366,
      "Kenya": 367,
      "This": 368,
      "ext": 369,
      "ust": 370,
      "Con": 371,
      "iti": 372,
      "ber": 373,
      "How": 374,
      "og": 375,
      "ard": 376,
      "bo": 377,
      "now": 378,
      "brand": 379,
      "pay": 380,
      "eng": 381,
      "des": 382,
      "comm": 383,
      "ile": 384,
      "help": 385,
      "fo": 386,
      "You": 387,
      "ols": 388,
      "man": 389,
      "data": 390,
      "grow": 391,
      "urn": 392,
      "ese": 393,
      "sub": 394,
      "also": 395,
      "It": 396,
      "into": 397,
      "ments": 398,
      "val": 399,
      "need": 400,
      "ss": 401,
      "exper": 402,
      "lis": 403,
      "enti": 404,
      "fl": 405,
      "but": 406,
      "like": 407,
      "Un": 408,
      "what": 409,
      "marketing": 410,
      "strateg": 411,
      "line": 412,
      "So": 413,
      "thing": 414,
      "ature": 415,
      "agement": 416,
      "tech": 417,
      "ect": 418,
      "pa": 419,
      "ated": 420,
      "ase": 421,
      "them": 422,
      "serv": 423,
      "vel": 424,
      "content": 425,
      "Africa": 426,
      "inter": 427,
      "scrip": 428,
      "top": 429,
      "insights": 430,
      "some": 431,
      "af": 432,
      "own": 433,
      "Mar": 434,
      "ta": 435,
      "For": 436,
      "pre": 437,
      "ph": 438,
      "We": 439,
      "Ex": 440,
      "start": 441,
      "venue": 442,
      "ong": 443,
      "oll": 444,
      "del": 445,
      "tim": 446,
      "other": 447,
      "chan": 448,
      "tive": 449,
      "ful": 450,
      "ass": 451,
      "book": 452,
      "post": 453,
      "gle": 454,
      "app": 455,
      "which": 456,
      "Goo": 457,
      "aS": 458,
      "analy": 459,
      "cam": 460,
      "plat": 461,
      "ources": 462,
      "aremetrics": 463,
      "Baremetrics": 464,
      "stand": 465,
      "fic": 466,
      "SaaS": 467,
      "ick": 468,
      "ccess": 469,
      "dis": 470,
      "exp": 471,
      "make": 472,
      "sing": 473,
      "rough": 474,
      "Com": 475,
      "ital": 476,
      "int": 477,
      "who": 478,
      "ens": 479,
      "ip": 480,
      "feature": 481,
      "work": 482,
      "product": 483,
      "most": 484,
      "ves": 485,
      "iew": 486,
      "ating": 487,
      "Google": 488,
      "eas": 489,
      "Sh": 490,
      "incl": 491,
      "year": 492,
      "these": 493,
      "ads": 494,
      "ib": 495,
      "illion": 496,
      "ning": 497,
      "ind": 498,
      "every": 499,
      "prov": 500,
      "ents": 501,
      "sec": 502,
      "acebook": 503,
      "was": 504,
      "part": 505,
      "sol": 506,
      "cover": 507,
      "Br": 508,
      "using": 509,
      "revenue": 510,
      "through": 511,
      "ower": 512,
      "Mo": 513,
      "als": 514,
      "Tr": 515,
      "201": 516,
      "web": 517,
      "best": 518,
      "when": 519,
      "enc": 520,
      "mer": 521,
      "ok": 522,
      "ame": 523,
      "bet": 524,
      "ous": 525,
      "ink": 526,
      "gu": 527,
      "000": 528,
      "experi": 529,
      "inclu": 530,
      "scription": 531,
      "imp": 532,
      "ices": 533,
      "und": 534,
      "os": 535,
      "itor": 536,
      "loc": 537,
      "la": 538,
      "Facebook": 539,
      "2025": 540,
      "sur": 541,
      "ev": 542,
      "10": 543,
      "ary": 544,
      "platform": 545,
      "Social": 546,
      "Ac": 547,
      "reg": 548,
      "ople": 549,
      "sa": 550,
      "ank": 551,
      "text": 552,
      "anies": 553,
      "see": 554,
      "sul": 555,
      "reat": 556,
      "fir": 557,
      "Ap": 558,
      "lec": 559,
      "view": 560,
      "accoun": 561,
      "lear": 562,
      "way": 563,
      "dif": 564,
      "inform": 565,
      "anc": 566,
      "less": 567,
      "ty": 568,
      "If": 569,
      "Res": 570,
      "ancial": 571,
      "arge": 572,
      "audi": 573,
      "growth": 574,
      "les": 575,
      "tw": 576,
      "bas": 577,
      "ely": 578,
      "day": 579,
      "tri": 580,
      "people": 581,
      "olog": 582,
      "read": 583,
      "ak": 584,
      "ross": 585,
      "igital": 586,
      "Free": 587,
      "ire": 588,
      "success": 589,
      "team": 590,
      "ving": 591,
      "Get": 592,
      "month": 593,
      "ener": 594,
      "commun": 595,
      "ress": 596,
      "off": 597,
      "Inst": 598,
      "...": 599,
      "paign": 600,
      "know": 601,
      "Te": 602,
      "arch": 603,
      "flu": 604,
      "high": 605,
      "design": 606,
      "tools": 607,
      "just": 608,
      "derstand": 609,
      "ram": 610,
      "vo": 611,
      "techn": 612,
      "key": 613,
      "ize": 614,
      "ility": 615,
      "fy": 616,
      "Custom": 617,
      "Pro": 618,
      "pers": 619,
      "En": 620,
      "Pl": 621,
      "there": 622,
      "ched": 623,
      "prove": 624,
      "trans": 625,
      "ates": 626,
      "ual": 627,
      "cur": 628,
      "ost": 629,
      "log": 630,
      "ash": 631,
      "back": 632,
      "than": 633,
      "differ": 634,
      "search": 635,
      "ities": 636,
      "ative": 637,
      "buil": 638,
      "far": 639,
      "businesses": 640,
      "churn": 641,
      "campaign": 642,
      "company": 643,
      "then": 644,
      "spec": 645,
      "Ar": 646,
      "ze": 647,
      "tics": 648,
      "tho": 649,
      "par": 650,
      "On": 651,
      "ition": 652,
      "plo": 653,
      "set": 654,
      "dri": 655,
      "Inter": 656,
      "first": 657,
      "ator": 658,
      "solu": 659,
      "Ad": 660,
      "process": 661,
      "companies": 662,
      "ific": 663,
      "bec": 664,
      "And": 665,
      "<|": 666,
      "_of": 667,
      "_text": 668,
      "|>": 669,
      "end_of": 670,
      "end_of_text": 671,
      "),": 672,
      "want": 673,
      "Man": 674,
      "well": 675,
      "agram": 676,
      "across": 677,
      "By": 678,
      "mis": 679,
      "Instagram": 680,
      "improve": 681,
      "net": 682,
      "sup": 683,
      "SE": 684,
      "site": 685,
      "io": 686,
      "audience": 687,
      "Your": 688,
      "online": 689,
      "ture": 690,
      "his": 691,
      "track": 692,
      "What": 693,
      "cr": 694,
      "person": 695,
      "free": 696,
      "power": 697,
      "users": 698,
      "resul": 699,
      "velop": 700,
      "add": 701,
      "where": 702,
      "ages": 703,
      "lish": 704,
      "ily": 705,
      "information": 706,
      "pos": 707,
      "indu": 708,
      "should": 709,
      "stry": 710,
      "subscription": 711,
      "ences": 712,
      "eti": 713,
      "user": 714,
      "right": 715,
      "technolog": 716,
      "ond": 717,
      "uc": 718,
      "dec": 719,
      "No": 720,
      "verti": 721,
      "service": 722,
      "12": 723,
      "ational": 724,
      "impact": 725,
      "ist": 726,
      "exam": 727,
      "30": 728,
      "yst": 729,
      "ms": 730,
      "competi": 731,
      "ON": 732,
      "Sto": 733,
      "mul": 734,
      "strategy": 735,
      "min": 736,
      "aw": 737,
      "cus": 738,
      "Ne": 739,
      "email": 740,
      "fun": 741,
      "ges": 742,
      "action": 743,
      "atch": 744,
      "uture": 745,
      "try": 746,
      "As": 747,
      "ized": 748,
      "Market": 749,
      "enter": 750,
      "ards": 751,
      "sure": 752,
      "ob": 753,
      "digital": 754,
      "features": 755,
      "tors": 756,
      "ales": 757,
      "Gr": 758,
      "RR": 759,
      "real": 760,
      "management": 761,
      "Fe": 762,
      "gi": 763,
      "ystem": 764,
      "ollow": 765,
      "RE": 766,
      "With": 767,
      "ix": 768,
      "ann": 769,
      "ons": 770,
      "Tools": 771,
      "vi": 772,
      "ben": 773,
      "50": 774,
      "offer": 775,
      "Media": 776,
      "ved": 777,
      "ood": 778,
      "vis": 779,
      "create": 780,
      "share": 781,
      "only": 782,
      "let": 783,
      "els": 784,
      "PP": 785,
      "Se": 786,
      "perform": 787,
      "rel": 788,
      "col": 789,
      "pub": 790,
      "ention": 791,
      "ions": 792,
      "down": 793,
      "ial": 794,
      "dem": 795,
      "nec": 796,
      "valu": 797,
      "ade": 798,
      "access": 799,
      "gener": 800,
      "kes": 801,
      "run": 802,
      "ud": 803,
      "Tech": 804,
      "take": 805,
      "ries": 806,
      "gan": 807,
      "experience": 808,
      "reach": 809,
      "products": 810,
      "prof": 811,
      "convers": 812,
      "different": 813,
      "Dis": 814,
      "pres": 815,
      "ways": 816,
      "account": 817,
      "uch": 818,
      "future": 819,
      "many": 820,
      "Spr": 821,
      "industry": 822,
      "cons": 823,
      "Rec": 824,
      "Safar": 825,
      "Business": 826,
      "ari": 827,
      "support": 828,
      "lead": 829,
      "ups": 830,
      "based": 831,
      "Cont": 832,
      "But": 833,
      "entify": 834,
      "vide": 835,
      "wr": 836,
      "been": 837,
      "earn": 838,
      "monitor": 839,
      "cor": 840,
      "even": 841,
      "financial": 842,
      "incre": 843,
      "ible": 844,
      "Jo": 845,
      "great": 846,
      "long": 847,
      "value": 848,
      "would": 849,
      "Charge": 850,
      "Fin": 851,
      "payment": 852,
      "Ksh": 853,
      "results": 854,
      "inv": 855,
      "my": 856,
      "says": 857,
      "icom": 858,
      "don": 859,
      "bee": 860,
      ").": 861,
      "ise": 862,
      "ted": 863,
      "world": 864,
      "CT": 865,
      "Sprout": 866,
      "Op": 867,
      "may": 868,
      "those": 869,
      "plan": 870,
      "Lo": 871,
      "sel": 872,
      "tal": 873,
      "Safaricom": 874,
      "adverti": 875,
      "Chargebee": 876,
      "arget": 877,
      "ners": 878,
      "alth": 879,
      "Brand": 880,
      "import": 881,
      "sign": 882,
      "years": 883,
      "ret": 884,
      "solutions": 885,
      "fore": 886,
      "said": 887,
      "model": 888,
      "consu": 889,
      "recast": 890,
      "hr": 891,
      "bal": 892,
      "fec": 893,
      "2024": 894,
      "better": 895,
      "pri": 896,
      "num": 897,
      "tical": 898,
      "MRR": 899,
      "ging": 900,
      "bi": 901,
      "tiv": 902,
      "surance": 903,
      "follow": 904,
      "prom": 905,
      "CO": 906,
      "Fr": 907,
      "such": 908,
      "oney": 909,
      "big": 910,
      "Ma": 911,
      "example": 912,
      "payments": 913,
      "bile": 914,
      "ry": 915,
      "phone": 916,
      "unch": 917,
      "ner": 918,
      "ripe": 919,
      "strategies": 920,
      "Stripe": 921,
      "Pr": 922,
      "AT": 923,
      "sis": 924,
      "Sub": 925,
      "ik": 926,
      "dc": 927,
      "influ": 928,
      "ability": 929,
      "rends": 930,
      "ques": 931,
      "while": 932,
      "cost": 933,
      "multi": 934,
      "very": 935,
      "ier": 936,
      "portun": 937,
      "posts": 938,
      "why": 939,
      "ular": 940,
      "ife": 941,
      "SEO": 942,
      "look": 943,
      "community": 944,
      "does": 945,
      "RO": 946,
      "vant": 947,
      "ider": 948,
      "ows": 949,
      "ify": 950,
      "engagement": 951,
      "Wor": 952,
      "tips": 953,
      "benef": 954,
      "Analy": 955,
      "sim": 956,
      "could": 957,
      "det": 958,
      "ause": 959,
      "aren": 960,
      "quire": 961,
      "que": 962,
      "cap": 963,
      "inst": 964,
      "learn": 965,
      "sto": 966,
      "tem": 967,
      "cel": 968,
      "chall": 969,
      "put": 970,
      "develop": 971,
      "ually": 972,
      "Le": 973,
      "De": 974,
      "Au": 975,
      "rele": 976,
      "mart": 977,
      "icing": 978,
      "services": 979,
      "find": 980,
      "tegr": 981,
      "resp": 982,
      "bre": 983,
      "MP": 984,
      "ave": 985,
      "come": 986,
      "ai": 987,
      "ONS": 988,
      "dcast": 989,
      "Ab": 990,
      "ones": 991,
      "play": 992,
      "rate": 993,
      "understand": 994,
      "Learn": 995,
      "campaigns": 996,
      "Customer": 997,
      "When": 998,
      "dev": 999,
      "Kenyan": 1000,
      "effec": 1001,
      "including": 1002,
      "asure": 1003,
      "being": 1004,
      "African": 1005,
      "Mon": 1006,
      "sales": 1007,
      "optim": 1008,
      "uring": 1009,
      "aging": 1010,
      "gram": 1011,
      "effor": 1012,
      "opportun": 1013,
      "ides": 1014,
      "Start": 1015,
      "eck": 1016,
      "move": 1017,
      "important": 1018,
      "cour": 1019,
      "technology": 1020,
      "lin": 1021,
      "EN": 1022,
      "target": 1023,
      "topic": 1024,
      "ath": 1025,
      "keep": 1026,
      "Bank": 1027,
      "ween": 1028,
      "cal": 1029,
      "two": 1030,
      "billion": 1031,
      "Al": 1032,
      "good": 1033,
      "ran": 1034,
      "influenc": 1035,
      "much": 1036,
      "ala": 1037,
      "pur": 1038,
      "Marketing": 1039,
      "App": 1040,
      "oper": 1041,
      "analysis": 1042,
      "pricing": 1043,
      "That": 1044,
      "here": 1045,
      "wit": 1046,
      "Here": 1047,
      "char": 1048,
      "old": 1049,
      "ical": 1050,
      "between": 1051,
      "ek": 1052,
      "cer": 1053,
      "land": 1054,
      "tool": 1055,
      "15": 1056,
      "test": 1057,
      "step": 1058,
      "million": 1059,
      "head": 1060,
      "oup": 1061,
      "nov": 1062,
      "self": 1063,
      "loo": 1064,
      "ble": 1065,
      "atest": 1066,
      "were": 1067,
      "Pay": 1068,
      "miss": 1069,
      "identify": 1070,
      "All": 1071,
      "things": 1072,
      "specific": 1073,
      "trial": 1074,
      "rece": 1075,
      "cri": 1076,
      "ED": 1077,
      "illing": 1078,
      "fici": 1079,
      "before": 1080,
      "ource": 1081,
      "focus": 1082,
      "autom": 1083,
      "lic": 1084,
      "led": 1085,
      "He": 1086,
      "issu": 1087,
      "her": 1088,
      "ship": 1089,
      "tory": 1090,
      "red": 1091,
      "Store": 1092,
      "Dat": 1093,
      "each": 1094,
      "curren": 1095,
      "cy": 1096,
      "might": 1097,
      "Sec": 1098,
      "prac": 1099,
      "chann": 1100,
      "New": 1101,
      "sof": 1102,
      "quick": 1103,
      "ale": 1104,
      "lock": 1105,
      "Fo": 1106,
      "making": 1107,
      "ips": 1108,
      "organ": 1109,
      "challeng": 1110,
      "az": 1111,
      "Im": 1112,
      "uary": 1113,
      "ris": 1114,
      "ivers": 1115,
      "ot": 1116,
      "Be": 1117,
      "money": 1118,
      "Found": 1119,
      "resources": 1120,
      "care": 1121,
      "Read": 1122,
      "page": 1123,
      "actions": 1124,
      "Best": 1125,
      "Bu": 1126,
      "duce": 1127,
      "system": 1128,
      "number": 1129,
      "Ads": 1130,
      "around": 1131,
      "tention": 1132,
      "hand": 1133,
      "ye": 1134,
      "multiple": 1135,
      "Of": 1136,
      "Met": 1137,
      "easily": 1138,
      "fac": 1139,
      "11": 1140,
      "Equ": 1141,
      "wards": 1142,
      "because": 1143,
      "tracking": 1144,
      "atter": 1145,
      "RI": 1146,
      "ready": 1147,
      "iting": 1148,
      "dition": 1149,
      "PPO": 1150,
      "performance": 1151,
      "win": 1152,
      "contin": 1153,
      "mi": 1154,
      "Data": 1155,
      "mobile": 1156,
      "provide": 1157,
      "There": 1158,
      "lobal": 1159,
      "Discover": 1160,
      "ited": 1161,
      "trends": 1162,
      "date": 1163,
      "plic": 1164,
      "elling": 1165,
      "blog": 1166,
      "Understand": 1167,
      "Is": 1168,
      "bers": 1169,
      "IC": 1170,
      "Ke": 1171,
      "aim": 1172,
      "cul": 1173,
      "Explo": 1174,
      "interest": 1175,
      "vari": 1176,
      "again": 1177,
      "Explore": 1178,
      "aster": 1179,
      "They": 1180,
      "Co": 1181,
      "mers": 1182,
      "direc": 1183,
      "men": 1184,
      "25": 1185,
      "ater": 1186,
      "active": 1187,
      "mit": 1188,
      "tly": 1189,
      "personal": 1190,
      "tening": 1191,
      "Comp": 1192,
      "tain": 1193,
      "monitoring": 1194,
      "BL": 1195,
      "earch": 1196,
      "website": 1197,
      "wer": 1198,
      "ney": 1199,
      "call": 1200,
      "avail": 1201,
      "More": 1202,
      "99": 1203,
      "same": 1204,
      "ization": 1205,
      "cent": 1206,
      "going": 1207,
      "updat": 1208,
      "platforms": 1209,
      "nect": 1210,
      "after": 1211,
      "Chart": 1212,
      "used": 1213,
      "Use": 1214,
      "recasting": 1215,
      "pic": 1216,
      "life": 1217,
      "opy": 1218,
      "IN": 1219,
      "happ": 1220,
      "analyze": 1221,
      "Mog": 1222,
      "ases": 1223,
      "fa": 1224,
      "sched": 1225,
      "Mogul": 1226,
      "integr": 1227,
      "sti": 1228,
      "ChartMogul": 1229,
      "mall": 1230,
      "oot": 1231,
      "invest": 1232,
      "card": 1233,
      "really": 1234,
      "pec": 1235,
      "cip": 1236,
      "jo": 1237,
      "ticles": 1238,
      "ings": 1239,
      "Meta": 1240,
      "oth": 1241,
      "ward": 1242,
      "found": 1243,
      "point": 1244,
      "watch": 1245,
      "ors": 1246,
      "did": 1247,
      "dep": 1248,
      "both": 1249,
      "had": 1250,
      "zu": 1251,
      "Financial": 1252,
      "ort": 1253,
      "show": 1254,
      "challenges": 1255,
      "next": 1256,
      "collec": 1257,
      "ream": 1258,
      "ourney": 1259,
      "ww": 1260,
      "partners": 1261,
      "Ser": 1262,
      "gest": 1263,
      "experiences": 1264,
      "sources": 1265,
      "comes": 1266,
      "TV": 1267,
      "Tok": 1268,
      "available": 1269,
      "launch": 1270,
      "IONS": 1271,
      "bel": 1272,
      "designed": 1273,
      "Me": 1274,
      "vely": 1275,
      "fil": 1276,
      "dr": 1277,
      "Su": 1278,
      "goals": 1279,
      "abor": 1280,
      "AL": 1281,
      "ng": 1282,
      "relevant": 1283,
      "Analytics": 1284,
      "place": 1285,
      "Customers": 1286,
      "health": 1287,
      "Manage": 1288,
      "lishing": 1289,
      "Po": 1290,
      "OP": 1291,
      "Resources": 1292,
      "die": 1293,
      "SM": 1294,
      "jec": 1295,
      "ra": 1296,
      "ati": 1297,
      "reduce": 1298,
      "uling": 1299,
      "advertis": 1300,
      "give": 1301,
      "Shop": 1302,
      "load": 1303,
      "Apple": 1304,
      "Ins": 1305,
      "hip": 1306,
      "Exper": 1307,
      "lim": 1308,
      "tu": 1309,
      "Ret": 1310,
      "sk": 1311,
      "under": 1312,
      "times": 1313,
      "program": 1314,
      "emplo": 1315,
      "build": 1316,
      "HE": 1317,
      "needs": 1318,
      "med": 1319,
      "Link": 1320,
      "ason": 1321,
      "gment": 1322,
      "24": 1323,
      "tware": 1324,
      "Red": 1325,
      "ending": 1326,
      "amp": 1327,
      "mess": 1328,
      "listening": 1329,
      "Em": 1330,
      "Equity": 1331,
      "deli": 1332,
      "feed": 1333,
      "think": 1334,
      "These": 1335,
      "ember": 1336,
      "suite": 1337,
      "measure": 1338,
      "Qu": 1339,
      "reng": 1340,
      "works": 1341,
      "Track": 1342,
      "tenti": 1343,
      "consider": 1344,
      "appro": 1345,
      "Ag": 1346,
      "review": 1347,
      "ote": 1348,
      "ars": 1349,
      "qual": 1350,
      "ties": 1351,
      "Tik": 1352,
      "comple": 1353,
      "drive": 1354,
      "channels": 1355,
      "without": 1356,
      "ish": 1357,
      "14": 1358,
      "adv": 1359,
      "cu": 1360,
      "words": 1361,
      "opportunities": 1362,
      "irt": 1363,
      "video": 1364,
      "13": 1365,
      "Mic": 1366,
      "ken": 1367,
      "ats": 1368,
      "Us": 1369,
      "TikTok": 1370,
      "position": 1371,
      "makes": 1372,
      "ends": 1373,
      "Pub": 1374,
      "Join": 1375,
      "ollabor": 1376,
      "offers": 1377,
      "Subscription": 1378,
      "few": 1379,
      "Do": 1380,
      "omen": 1381,
      "ports": 1382,
      "changes": 1383,
      "ded": 1384,
      "ein": 1385,
      "news": 1386,
      "Monitor": 1387,
      "report": 1388,
      "include": 1389,
      "5G": 1390,
      "building": 1391,
      "ang": 1392,
      "buy": 1393,
      "easy": 1394,
      "olu": 1395,
      "cho": 1396,
      "scriptions": 1397,
      "gn": 1398,
      "sit": 1399,
      "era": 1400,
      "change": 1401,
      "everything": 1402,
      "clo": 1403,
      "streng": 1404,
      "ency": 1405,
      "Insights": 1406,
      "monthly": 1407,
      "wa": 1408,
      "ticip": 1409,
      "loan": 1410,
      "Online": 1411,
      "pass": 1412,
      "ses": 1413,
      "podcast": 1414,
      "Can": 1415,
      "ero": 1416,
      "road": 1417,
      "aph": 1418,
      "commit": 1419,
      "At": 1420,
      "potenti": 1421,
      "hub": 1422,
      "she": 1423,
      "spe": 1424,
      "valuable": 1425,
      "Eng": 1426,
      "Hel": 1427,
      "unning": 1428,
      "low": 1429,
      "identifying": 1430,
      "fre": 1431,
      "insurance": 1432,
      "lot": 1433,
      "decis": 1434,
      "influencers": 1435,
      "questions": 1436,
      "connec": 1437,
      "days": 1438,
      "address": 1439,
      "innov": 1440,
      "grad": 1441,
      "Per": 1442,
      "dit": 1443,
      "ensive": 1444,
      "ants": 1445,
      "ently": 1446,
      "Pri": 1447,
      "Str": 1448,
      "week": 1449,
      "plac": 1450,
      "US": 1451,
      "Twit": 1452,
      "ht": 1453,
      "collabor": 1454,
      "Forecasting": 1455,
      "ills": 1456,
      "GB": 1457,
      "small": 1458,
      "tle": 1459,
      "detail": 1460,
      "struc": 1461,
      "last": 1462,
      "voice": 1463,
      "check": 1464,
      "aking": 1465,
      "Twitter": 1466,
      "ult": 1467,
      "competitors": 1468,
      "within": 1469,
      "Bo": 1470,
      "CE": 1471,
      "acy": 1472,
      "brands": 1473,
      "events": 1474,
      "still": 1475,
      "phones": 1476,
      "200": 1477,
      "public": 1478,
      "Prof": 1479,
      "smart": 1480,
      "100": 1481,
      "say": 1482,
      "Play": 1483,
      "benefits": 1484,
      "About": 1485,
      "ness": 1486,
      "aining": 1487,
      "havi": 1488,
      "open": 1489,
      "Univers": 1490,
      "too": 1491,
      "hol": 1492,
      "Af": 1493,
      "Post": 1494,
      "Ben": 1495,
      "word": 1496,
      "iger": 1497,
      "case": 1498,
      "latest": 1499,
      "event": 1500,
      "gy": 1501,
      "ied": 1502,
      "cep": 1503,
      "creating": 1504,
      "provid": 1505,
      "antly": 1506,
      "xim": 1507,
      "PRO": 1508,
      "GP": 1509,
      "working": 1510,
      "verage": 1511,
      "reen": 1512,
      "subscriptions": 1513,
      "terms": 1514,
      "oto": 1515,
      "device": 1516,
      "Churn": 1517,
      "fect": 1518,
      "aring": 1519,
      "den": 1520,
      "18": 1521,
      "Linked": 1522,
      "simple": 1523,
      "CB": 1524,
      "early": 1525,
      "helps": 1526,
      "East": 1527,
      "tific": 1528,
      "Gu": 1529,
      "stud": 1530,
      "ples": 1531,
      "MPA": 1532,
      "Shopify": 1533,
      "Group": 1534,
      "oc": 1535,
      "regis": 1536,
      "Blog": 1537,
      "LinkedIn": 1538,
      "though": 1539,
      "COMPA": 1540,
      "ATIONS": 1541,
      "link": 1542,
      "behavi": 1543,
      "doing": 1544,
      "Intern": 1545,
      "ced": 1546,
      "att": 1547,
      "explo": 1548,
      "billing": 1549,
      "graph": 1550,
      "ES": 1551,
      "light": 1552,
      "gether": 1553,
      "iter": 1554,
      "gin": 1555,
      "Tu": 1556,
      "purch": 1557,
      "research": 1558,
      "potential": 1559,
      "Founders": 1560,
      "main": 1561,
      "clear": 1562,
      "onom": 1563,
      "won": 1564,
      "yourself": 1565,
      "ince": 1566,
      "tist": 1567,
      "Brandwatch": 1568,
      "Now": 1569,
      "looking": 1570,
      "expect": 1571,
      "strengthen": 1572,
      "global": 1573,
      "software": 1574,
      "ild": 1575,
      "Or": 1576,
      "something": 1577,
      "Help": 1578,
      "stage": 1579,
      "Bl": 1580,
      "ately": 1581,
      "demo": 1582,
      "oose": 1583,
      "poss": 1584,
      "successful": 1585,
      "ger": 1586,
      "Articles": 1587,
      "Boo": 1588,
      "TE": 1589,
      "ets": 1590,
      "cogn": 1591,
      "Ph": 1592,
      "Pric": 1593,
      "range": 1594,
      "startup": 1595,
      "ule": 1596,
      "celer": 1597,
      "name": 1598,
      "analytics": 1599,
      "means": 1600,
      "guide": 1601,
      "effici": 1602,
      "advertisement": 1603,
      "emo": 1604,
      "oran": 1605,
      "cli": 1606,
      "announ": 1607,
      "increase": 1608,
      "iel": 1609,
      "However": 1610,
      "startups": 1611,
      "subscri": 1612,
      "nal": 1613,
      "gain": 1614,
      "deliver": 1615,
      "ises": 1616,
      "chmar": 1617,
      "lik": 1618,
      "local": 1619,
      "recogn": 1620,
      "profit": 1621,
      "60": 1622,
      "tens": 1623,
      "Niger": 1624,
      "already": 1625,
      "achie": 1626,
      "list": 1627,
      "anda": 1628,
      "OPPO": 1629,
      "ah": 1630,
      "fail": 1631,
      "econom": 1632,
      "CI": 1633,
      "face": 1634,
      "options": 1635,
      "While": 1636,
      "ker": 1637,
      "consumer": 1638,
      "ics": 1639,
      "updates": 1640,
      "pop": 1641,
      "bruary": 1642,
      "February": 1643,
      ".<|": 1644,
      "communic": 1645,
      "tell": 1646,
      "made": 1647,
      "enci": 1648,
      "today": 1649,
      "car": 1650,
      "Nok": 1651,
      "together": 1652,
      "ring": 1653,
      "ically": 1654,
      "Our": 1655,
      "common": 1656,
      "OZ": 1657,
      "vid": 1658,
      "Nokia": 1659,
      "ster": 1660,
      "accounts": 1661,
      "Share": 1662,
      "ele": 1663,
      "amoun": 1664,
      "ensure": 1665,
      "2019": 1666,
      "ticle": 1667,
      "courses": 1668,
      "connect": 1669,
      "erved": 1670,
      "enh": 1671,
      "Why": 1672,
      "initi": 1673,
      "emer": 1674,
      "ellation": 1675,
      "lessly": 1676,
      "nment": 1677,
      "ures": 1678,
      "jor": 1679,
      "tra": 1680,
      "World": 1681,
      "ask": 1682,
      "Educ": 1683,
      "izing": 1684,
      "ake": 1685,
      "given": 1686,
      "ootsuite": 1687,
      "Cre": 1688,
      "cash": 1689,
      "eno": 1690,
      "box": 1691,
      "tre": 1692,
      "efforts": 1693,
      "Hootsuite": 1694,
      "level": 1695,
      "tivity": 1696,
      "dy": 1697,
      "Grow": 1698,
      "option": 1699,
      "anks": 1700,
      "board": 1701,
      "itive": 1702,
      "19": 1703,
      "months": 1704,
      "three": 1705,
      "shared": 1706,
      "esa": 1707,
      "full": 1708,
      "OS": 1709,
      "getting": 1710,
      "entre": 1711,
      "Try": 1712,
      "km": 1713,
      "Digital": 1714,
      "Stories": 1715,
      "Des": 1716,
      "during": 1717,
      "urity": 1718,
      "ager": 1719,
      "always": 1720,
      "Retention": 1721,
      "IF": 1722,
      "require": 1723,
      "roll": 1724,
      "quer": 1725,
      "employe": 1726,
      "ton": 1727,
      "auf": 1728,
      "ether": 1729,
      "retention": 1730,
      "acks": 1731,
      "tration": 1732,
      "proble": 1733,
      "mean": 1734,
      "ground": 1735,
      "Web": 1736,
      "Startup": 1737,
      "perio": 1738,
      "cording": 1739,
      "Develop": 1740,
      "Profit": 1741,
      "Di": 1742,
      "ategor": 1743,
      "allows": 1744,
      "??": 1745,
      "ling": 1746,
      "Dec": 1747,
      "price": 1748,
      "ste": 1749,
      "divers": 1750,
      "allow": 1751,
      "regul": 1752,
      "sen": 1753,
      "One": 1754,
      "article": 1755,
      "conversations": 1756,
      "Awards": 1757,
      "technologies": 1758,
      "Nigeria": 1759,
      "marketers": 1760,
      "bud": 1761,
      "via": 1762,
      "olic": 1763,
      "picture": 1764,
      "paid": 1765,
      "receive": 1766,
      "lar": 1767,
      "16": 1768,
      "reh": 1769,
      "March": 1770,
      "explore": 1771,
      "Canc": 1772,
      "addition": 1773,
      "signific": 1774,
      "Nai": 1775,
      "accur": 1776,
      "esti": 1777,
      "ook": 1778,
      "started": 1779,
      "scale": 1780,
      "Content": 1781,
      "special": 1782,
      "ject": 1783,
      "journey": 1784,
      "idea": 1785,
      "Sam": 1786,
      "host": 1787,
      "often": 1788,
      "consumers": 1789,
      "vir": 1790,
      "critical": 1791,
      "stat": 1792,
      "asing": 1793,
      "ential": 1794,
      "become": 1795,
      "AM": 1796,
      "ession": 1797,
      "applic": 1798,
      "approach": 1799,
      "compreh": 1800,
      "issues": 1801,
      "behavior": 1802,
      "Net": 1803,
      "bring": 1804,
      "against": 1805,
      "PU": 1806,
      "ian": 1807,
      "budget": 1808,
      "feel": 1809,
      "Redmi": 1810,
      "ird": 1811,
      "ys": 1812,
      "models": 1813,
      "effort": 1814,
      "comprehensive": 1815,
      "exc": 1816,
      "gor": 1817,
      "pm": 1818,
      "fluence": 1819,
      "abo": 1820,
      "isting": 1821,
      "ibility": 1822,
      "gen": 1823,
      "stories": 1824,
      "ety": 1825,
      "term": 1826,
      "ators": 1827,
      "Oc": 1828,
      "sharing": 1829,
      "Cl": 1830,
      "projec": 1831,
      "imple": 1832,
      "manage": 1833,
      "ially": 1834,
      ".!": 1835,
      "screen": 1836,
      "photo": 1837,
      "presence": 1838,
      "fu": 1839,
      "espec": 1840,
      "robi": 1841,
      "gmentation": 1842,
      "enab": 1843,
      "ape": 1844,
      "22": 1845,
      "tively": 1846,
      "compare": 1847,
      "lect": 1848,
      "PPC": 1849,
      "solution": 1850,
      "putation": 1851,
      "boost": 1852,
      "cris": 1853,
      "Id": 1854,
      "amount": 1855,
      "present": 1856,
      "break": 1857,
      "possible": 1858,
      "relation": 1859,
      "entiment": 1860,
      "videos": 1861,
      "doesn": 1862,
      "tional": 1863,
      "period": 1864,
      "following": 1865,
      "Nairobi": 1866,
      "ug": 1867,
      "quality": 1868,
      "respons": 1869,
      "Jan": 1870,
      "emails": 1871,
      "loans": 1872,
      "core": 1873,
      "athon": 1874,
      "Es": 1875,
      "prene": 1876,
      "fav": 1877,
      "From": 1878,
      "uses": 1879,
      "Mention": 1880,
      "Sou": 1881,
      "commitment": 1882,
      "press": 1883,
      "Profitwell": 1884,
      "Ste": 1885,
      "Li": 1886,
      "plates": 1887,
      "partner": 1888,
      "Dri": 1889,
      "webin": 1890,
      "acquire": 1891,
      "collaboration": 1892,
      "ord": 1893,
      "ique": 1894,
      "takes": 1895,
      "another": 1896,
      "Pricing": 1897,
      "likely": 1898,
      "urring": 1899,
      "credit": 1900,
      "unched": 1901,
      "job": 1902,
      "Revenue": 1903,
      "Oz": 1904,
      "divid": 1905,
      "Sup": 1906,
      "discus": 1907,
      "expand": 1908,
      "section": 1909,
      "extens": 1910,
      "ideas": 1911,
      "Reno": 1912,
      "hal": 1913,
      "Search": 1914,
      "country": 1915,
      "ECT": 1916,
      "sust": 1917,
      "interact": 1918,
      "books": 1919,
      "reputation": 1920,
      "ased": 1921,
      "Companies": 1922,
      "fing": 1923,
      "ping": 1924,
      "Educational": 1925,
      "La": 1926,
      "CEO": 1927,
      "oud": 1928,
      "uly": 1929,
      "anced": 1930,
      "equ": 1931,
      "scen": 1932,
      "everyone": 1933,
      "base": 1934,
      "bank": 1935,
      "ged": 1936,
      "choose": 1937,
      "mail": 1938,
      "21": 1939,
      "2023": 1940,
      "teams": 1941,
      "fact": 1942,
      "copy": 1943,
      "pen": 1944,
      "fast": 1945,
      "Keep": 1946,
      "Center": 1947,
      "force": 1948,
      "count": 1949,
      "adem": 1950,
      "secure": 1951,
      "especially": 1952,
      "source": 1953,
      "live": 1954,
      "inves": 1955,
      "tract": 1956,
      "Up": 1957,
      "paren": 1958,
      "sustain": 1959,
      "Smart": 1960,
      "Tim": 1961,
      "chmarks": 1962,
      "80": 1963,
      "Using": 1964,
      "mus": 1965,
      "AC": 1966,
      "heav": 1967,
      "isn": 1968,
      "Connec": 1969,
      "40": 1970,
      "Spo": 1971,
      "fri": 1972,
      "running": 1973,
      "costs": 1974,
      "Quick": 1975,
      "urther": 1976,
      "cancel": 1977,
      "camera": 1978,
      "Produc": 1979,
      "demand": 1980,
      "collection": 1981,
      "hn": 1982,
      "preneur": 1983,
      "Reg": 1984,
      "templates": 1985,
      "xy": 1986,
      "development": 1987,
      "tify": 1988,
      "calcul": 1989,
      "aims": 1990,
      "Wall": 1991,
      "Tube": 1992,
      "conversion": 1993,
      "Meas": 1994,
      "mind": 1995,
      "bl": 1996,
      "YouTube": 1997,
      "Secure": 1998,
      "ck": 1999,
      "lished": 2000,
      "hind": 2001,
      "onment": 2002,
      "crisis": 2003,
      "plans": 2004,
      "writing": 2005,
      "advertising": 2006,
      "strong": 2007,
      "Artist": 2008,
      "delay": 2009,
      "Some": 2010,
      "sult": 2011,
      "RT": 2012,
      "assurance": 2013,
      "2021": 2014,
      "employees": 2015,
      "Star": 2016,
      "students": 2017,
      "Find": 2018,
      "pi": 2019,
      "ints": 2020,
      "promo": 2021,
      "finger": 2022,
      "Sched": 2023,
      "thor": 2024,
      "Reno12": 2025,
      "minds": 2026,
      "current": 2027,
      "500": 2028,
      "various": 2029,
      "affic": 2030,
      "fam": 2031,
      "nam": 2032,
      "metho": 2033,
      "must": 2034,
      "sung": 2035,
      "network": 2036,
      "tro": 2037,
      "roid": 2038,
      "avig": 2039,
      "leading": 2040,
      "AP": 2041,
      "offering": 2042,
      "Strateg": 2043,
      "stay": 2044,
      "ND": 2045,
      "View": 2046,
      "click": 2047,
      "skills": 2048,
      "ont": 2049,
      "AIfluence": 2050,
      "sites": 2051,
      "shop": 2052,
      "Understanding": 2053,
      "effective": 2054,
      "mention": 2055,
      "Recover": 2056,
      "enge": 2057,
      "Payment": 2058,
      "update": 2059,
      "got": 2060,
      "igence": 2061,
      "turn": 2062,
      "Master": 2063,
      "ecos": 2064,
      "optimize": 2065,
      "average": 2066,
      "cle": 2067,
      "hard": 2068,
      "ering": 2069,
      "diverse": 2070,
      "transform": 2071,
      "Create": 2072,
      "above": 2073,
      "func": 2074,
      "ecosystem": 2075,
      "wal": 2076,
      "My": 2077,
      "GR": 2078,
      "merce": 2079,
      "images": 2080,
      "structure": 2081,
      "second": 2082,
      "practical": 2083,
      "meet": 2084,
      "wide": 2085,
      "Measure": 2086,
      "ancassurance": 2087,
      "Android": 2088,
      "enterpr": 2089,
      "order": 2090,
      "atory": 2091,
      "ticipate": 2092,
      "B2": 2093,
      "ably": 2094,
      "scheduling": 2095,
      "race": 2096,
      "ines": 2097,
      "feedback": 2098,
      "sues": 2099,
      "flow": 2100,
      "zing": 2101,
      "Serv": 2102,
      "Samsung": 2103,
      "Ug": 2104,
      "ural": 2105,
      "Perform": 2106,
      "arly": 2107,
      "rates": 2108,
      "bot": 2109,
      "Metrics": 2110,
      "vate": 2111,
      "MM": 2112,
      "Boost": 2113,
      "tack": 2114,
      "olicy": 2115,
      "Del": 2116,
      "clus": 2117,
      "strategic": 2118,
      "leads": 2119,
      "implement": 2120,
      "LTV": 2121,
      "bit": 2122,
      "projects": 2123,
      "dic": 2124,
      "Growth": 2125,
      "iment": 2126,
      "Make": 2127,
      "delayed": 2128,
      "ues": 2129,
      "recei": 2130,
      "eful": 2131,
      "Plat": 2132,
      "Bancassurance": 2133,
      "launched": 2134,
      "ply": 2135,
      "tices": 2136,
      "testing": 2137,
      "entrepreneur": 2138,
      "actionable": 2139,
      "typ": 2140,
      "large": 2141,
      "Wr": 2142,
      "leave": 2143,
      "coming": 2144,
      "Source": 2145,
      "overall": 2146,
      "Real": 2147,
      "anking": 2148,
      "behind": 2149,
      "ended": 2150,
      "guides": 2151,
      "queries": 2152,
      "benefit": 2153,
      "announced": 2154,
      "air": 2155,
      "Podcast": 2156,
      "Brain": 2157,
      "among": 2158,
      "Airt": 2159,
      "Back": 2160,
      "existing": 2161,
      "points": 2162,
      "defin": 2163,
      "olution": 2164,
      "envir": 2165,
      "Stat": 2166,
      "Ready": 2167,
      "ittle": 2168,
      "vious": 2169,
      "SU": 2170,
      "Let": 2171,
      "extensive": 2172,
      "ademy": 2173,
      "Sie": 2174,
      "image": 2175,
      "Ver": 2176,
      "provides": 2177,
      "See": 2178,
      "LP": 2179,
      "istic": 2180,
      "publishing": 2181,
      "activ": 2182,
      "devices": 2183,
      "Note": 2184,
      "Airtel": 2185,
      "gorith": 2186,
      "ience": 2187,
      "ilities": 2188,
      "attery": 2189,
      "spend": 2190,
      "mission": 2191,
      "others": 2192,
      "ref": 2193,
      "links": 2194,
      "Are": 2195,
      "PR": 2196,
      "keywords": 2197,
      "ga": 2198,
      "17": 2199,
      "celerator": 2200,
      "purchase": 2201,
      "having": 2202,
      "Buil": 2203,
      "competition": 2204,
      "NY": 2205,
      "ns": 2206,
      "vent": 2207,
      "home": 2208,
      "major": 2209,
      "Resp": 2210,
      "encies": 2211,
      "GS": 2212,
      "internet": 2213,
      "total": 2214,
      "ford": 2215,
      "growing": 2216,
      "Coun": 2217,
      "Pesa": 2218,
      "Xero": 2219,
      "acqu": 2220,
      "Thanks": 2221,
      "further": 2222,
      "breaking": 2223,
      "After": 2224,
      "heavy": 2225,
      "Go": 2226,
      "Research": 2227,
      "Demo": 2228,
      "driven": 2229,
      "ead": 2230,
      "individ": 2231,
      "prior": 2232,
      "lectr": 2233,
      "ident": 2234,
      "yond": 2235,
      "enn": 2236,
      "ours": 2237,
      "profession": 2238,
      "unique": 2239,
      "aps": 2240,
      "Feature": 2241,
      "issue": 2242,
      "soci": 2243,
      "South": 2244,
      "ola": 2245,
      "investment": 2246,
      "grade": 2247,
      "partnership": 2248,
      "trust": 2249,
      "chain": 2250,
      "Copy": 2251,
      "stacks": 2252,
      "Academy": 2253,
      "regulatory": 2254,
      "Os": 2255,
      "since": 2256,
      "Grand": 2257,
      "uti": 2258,
      "Infin": 2259,
      "Success": 2260,
      "Performance": 2261,
      "Most": 2262,
      "away": 2263,
      "front": 2264,
      "traffic": 2265,
      "decision": 2266,
      "gover": 2267,
      "arding": 2268,
      "environment": 2269,
      "EA": 2270,
      "answer": 2271,
      "Dunning": 2272,
      "season": 2273,
      "thri": 2274,
      "DU": 2275,
      "Benchmarks": 2276,
      "stream": 2277,
      "anz": 2278,
      "ore": 2279,
      "Sep": 2280,
      "Chat": 2281,
      "space": 2282,
      "Cancellation": 2283,
      "accurate": 2284,
      "Run": 2285,
      "charge": 2286,
      "Guide": 2287,
      "Identify": 2288,
      "tree": 2289,
      "cases": 2290,
      "Part": 2291,
      "Sales": 2292,
      "charges": 2293,
      "intro": 2294,
      "providing": 2295,
      "Once": 2296,
      "leaders": 2297,
      "Rel": 2298,
      "CBA": 2299,
      "educ": 2300,
      "2015": 2301,
      "mem": 2302,
      "happen": 2303,
      "75": 2304,
      "recurring": 2305,
      "gives": 2306,
      "fig": 2307,
      "ounder": 2308,
      "Accelerator": 2309,
      "Interactive": 2310,
      "tackle": 2311,
      "fit": 2312,
      "tend": 2313,
      "urly": 2314,
      "Recurly": 2315,
      "whether": 2316,
      "quickly": 2317,
      "Pre": 2318,
      "che": 2319,
      "mula": 2320,
      "23": 2321,
      "Er": 2322,
      "Log": 2323,
      "Over": 2324,
      "never": 2325,
      "course": 2326,
      "reviews": 2327,
      "Ty": 2328,
      "instantly": 2329,
      "Lead": 2330,
      "2018": 2331,
      "learning": 2332,
      "Infinix": 2333,
      "consult": 2334,
      "invol": 2335,
      "Oppo": 2336,
      "planning": 2337,
      "effects": 2338,
      "alaxy": 2339,
      "lex": 2340,
      "below": 2341,
      "categor": 2342,
      "side": 2343,
      "practices": 2344,
      "hum": 2345,
      "Formula": 2346,
      "maxim": 2347,
      "QU": 2348,
      "certain": 2349,
      "ff": 2350,
      "lan": 2351,
      "Down": 2352,
      "iza": 2353,
      "series": 2354,
      "mun": 2355,
      "entire": 2356,
      "problem": 2357,
      "Galaxy": 2358,
      "ming": 2359,
      "non": 2360,
      "cook": 2361,
      "ICS": 2362,
      "vs": 2363,
      "security": 2364,
      "location": 2365,
      "Segmentation": 2366,
      "ancing": 2367,
      "Vide": 2368,
      "dom": 2369,
      "compl": 2370,
      "Fil": 2371,
      "true": 2372,
      "lich": 2373,
      "enough": 2374,
      "Val": 2375,
      "mm": 2376,
      "significant": 2377,
      "January": 2378,
      "zz": 2379,
      "aling": 2380,
      "Need": 2381,
      "Uganda": 2382,
      "useful": 2383,
      "Ny": 2384,
      "ft": 2385,
      "commer": 2386,
      "Spotify": 2387,
      "Power": 2388,
      "Product": 2389,
      "Dive": 2390,
      "leg": 2391,
      "fault": 2392,
      "send": 2393,
      "trying": 2394,
      "schedule": 2395,
      "forecast": 2396,
      "Braintree": 2397,
      "past": 2398,
      "Platform": 2399,
      "Posts": 2400,
      "clients": 2401,
      "understanding": 2402,
      "Top": 2403,
      "reve": 2404,
      "letter": 2405,
      "speed": 2406,
      "THE": 2407,
      "para": 2408,
      "emerg": 2409,
      "Km": 2410,
      "imply": 2411,
      "Love": 2412,
      "uk": 2413,
      "Latest": 2414,
      "type": 2415,
      "REE": 2416,
      "region": 2417,
      "values": 2418,
      "personalized": 2419,
      "recover": 2420,
      "Email": 2421,
      "Women": 2422,
      "insight": 2423,
      "FREE": 2424,
      "tax": 2425,
      "types": 2426,
      "requ": 2427,
      "higher": 2428,
      "Just": 2429,
      "bed": 2430,
      "default": 2431,
      "actually": 2432,
      "Cam": 2433,
      "worth": 2434,
      "little": 2435,
      "directly": 2436,
      "webinars": 2437,
      "trad": 2438,
      "2022": 2439,
      "targeting": 2440,
      "single": 2441,
      "related": 2442,
      "reason": 2443,
      "tori": 2444,
      "Sp": 2445,
      "ROI": 2446,
      "Mer": 2447,
      "navig": 2448,
      "wers": 2449,
      "mark": 2450,
      "www": 2451,
      "Mobile": 2452,
      "includes": 2453,
      "Quickbooks": 2454,
      "story": 2455,
      "acts": 2456,
      "asons": 2457,
      "ING": 2458,
      "Never": 2459,
      "los": 2460,
      "Developers": 2461,
      "ush": 2462,
      "TRI": 2463,
      "dash": 2464,
      "yal": 2465,
      "Am": 2466,
      "table": 2467,
      "movements": 2468,
      "anticipate": 2469,
      "positive": 2470,
      "Gover": 2471,
      "aged": 2472,
      "rending": 2473,
      "fol": 2474,
      "une": 2475,
      "gradu": 2476,
      "interacting": 2477,
      "recomm": 2478,
      "advant": 2479,
      "spo": 2480,
      "26": 2481,
      "Contact": 2482,
      "sens": 2483,
      "AS": 2484,
      "rol": 2485,
      "Manager": 2486,
      "star": 2487,
      "fingertips": 2488,
      "Step": 2489,
      "depth": 2490,
      "nn": 2491,
      "Ihr": 2492,
      "Ra": 2493,
      "Aug": 2494,
      "Experts": 2495,
      "AR": 2496,
      "Unlock": 2497,
      "Recovery": 2498,
      "According": 2499,
      "relations": 2500,
      "Universal": 2501,
      "ium": 2502,
      "successes": 2503,
      "Sentiment": 2504,
      "sch": 2505,
      "music": 2506,
      "Gener": 2507,
      "Empower": 2508,
      "Publishing": 2509,
      "reactions": 2510,
      "vey": 2511,
      "torage": 2512,
      "smartphone": 2513,
      "popular": 2514,
      "groundbreaking": 2515,
      "deter": 2516,
      "sever": 2517,
      "Hou": 2518,
      "question": 2519,
      "favour": 2520,
      "chat": 2521,
      "ances": 2522,
      "ya": 2523,
      "limited": 2524,
      "95": 2525,
      "ped": 2526,
      "ung": 2527,
      "effortlessly": 2528,
      "competitive": 2529,
      "annual": 2530,
      "soft": 2531,
      "belie": 2532,
      "Out": 2533,
      "ither": 2534,
      "Management": 2535,
      "opportunity": 2536,
      "Eu": 2537,
      "oups": 2538,
      "ains": 2539,
      "peti": 2540,
      "added": 2541,
      "ships": 2542,
      "ral": 2543,
      "isition": 2544,
      "comment": 2545,
      "December": 2546,
      "contact": 2547,
      "Enter": 2548,
      "reports": 2549,
      "begin": 2550,
      "goal": 2551,
      "prefer": 2552,
      "setting": 2553,
      "PRODU": 2554,
      "ESA": 2555,
      "28": 2556,
      "role": 2557,
      "PRODUCT": 2558,
      "iday": 2559,
      "discover": 2560,
      "ky": 2561,
      "ised": 2562,
      "Micro": 2563,
      "cru": 2564,
      "Rights": 2565,
      "pt": 2566,
      "inc": 2567,
      "News": 2568,
      "2016": 2569,
      "Octo": 2570,
      "Million": 2571,
      "maker": 2572,
      "expert": 2573,
      "aces": 2574,
      "Interact": 2575,
      "INTE": 2576,
      "film": 2577,
      "pages": 2578,
      "forward": 2579,
      "TOP": 2580,
      "canc": 2581,
      "registration": 2582,
      "Scheduling": 2583,
      "sell": 2584,
      "Sources": 2585,
      "prot": 2586,
      "treasure": 2587,
      "gate": 2588,
      "emergence": 2589,
      "investors": 2590,
      "Don": 2591,
      "women": 2592,
      "Respond": 2593,
      "Have": 2594,
      "done": 2595,
      "tice": 2596,
      "Indu": 2597,
      "END": 2598,
      "continue": 2599,
      "Trends": 2600,
      "enses": 2601,
      "Open": 2602,
      "empower": 2603,
      "irth": 2604,
      "Chats": 2605,
      "RIS": 2606,
      "anch": 2607,
      "aily": 2608,
      "Which": 2609,
      "International": 2610,
      "ID": 2611,
      "vem": 2612,
      "gets": 2613,
      "UN": 2614,
      "hu": 2615,
      "2020": 2616,
      "OPEN": 2617,
      "TRE": 2618,
      "version": 2619,
      "HELP": 2620,
      "October": 2621,
      "vember": 2622,
      "mom": 2623,
      "November": 2624,
      "PUBL": 2625,
      "entures": 2626,
      "PPORT": 2627,
      "NDING": 2628,
      "SUPPORT": 2629,
      "PUBLIC": 2630,
      "Access": 2631,
      "JECT": 2632,
      "COMM": 2633,
      "PROJECT": 2634,
      "INTEGR": 2635,
      "talk": 2636,
      "biggest": 2637,
      "COMPANY": 2638,
      "TRENDING": 2639,
      "CON": 2640,
      "pose": 2641,
      "tries": 2642,
      "RECOMM": 2643,
      "COMPARIS": 2644,
      "Connector": 2645,
      "Statups": 2646,
      "TRIAL": 2647,
      "TOPICS": 2648,
      "ENDED": 2649,
      "PUBLICATIONS": 2650,
      "INTEGRATIONS": 2651,
      "RECOMMENDED": 2652,
      "COMPARISONS": 2653,
      "TB": 2654,
      "short": 2655,
      "office": 2656,
      "influencer": 2657,
      "founders": 2658,
      "groups": 2659,
      "trove": 2660,
      "Mr": 2661,
      "mary": 2662,
      "perfect": 2663,
      "Right": 2664,
      "Reserved": 2665,
      "ired": 2666,
      "attention": 2667,
      "moran": 2668,
      "Delve": 2669,
      "favourite": 2670,
      "lines": 2671,
      "fuelling": 2672,
      "Air": 2673,
      "brow": 2674,
      "details": 2675,
      "compar": 2676,
      "Pal": 2677,
      "faster": 2678,
      "innovation": 2679,
      "steps": 2680,
      "May": 2681,
      "ames": 2682,
      "economic": 2683,
      "til": 2684,
      "iring": 2685,
      "tern": 2686,
      "operations": 2687,
      "Great": 2688,
      "Name": 2689,
      "draw": 2690,
      "las": 2691,
      "uth": 2692,
      "ilar": 2693,
      "history": 2694,
      "Marathon": 2695,
      "examples": 2696,
      "Sun": 2697,
      "Check": 2698,
      "automat": 2699,
      "bid": 2700,
      "due": 2701,
      "someone": 2702,
      "Direc": 2703,
      "Inc": 2704,
      "ticular": 2705,
      "Techn": 2706,
      "additional": 2707,
      "simply": 2708,
      "charging": 2709,
      "She": 2710,
      "seam": 2711,
      "University": 2712,
      "Fund": 2713,
      "apps": 2714,
      "Septem": 2715,
      "love": 2716,
      "September": 2717,
      "ising": 2718,
      "seen": 2719,
      "Film": 2720,
      "Mastercard": 2721,
      "Ze": 2722,
      "andom": 2723,
      "Ef": 2724,
      "expl": 2725,
      "particular": 2726,
      "MD": 2727,
      "creative": 2728,
      "enhance": 2729,
      "display": 2730,
      "ouch": 2731,
      "class": 2732,
      "tise": 2733,
      "placement": 2734,
      "battery": 2735,
      "reads": 2736,
      "Not": 2737,
      "reduc": 2738,
      "Commun": 2739,
      "decisions": 2740,
      "penal": 2741,
      "Ul": 2742,
      "ahead": 2743,
      "Kenyans": 2744,
      "sav": 2745,
      "several": 2746,
      "RM": 2747,
      "bn": 2748,
      "engine": 2749,
      "intell": 2750,
      "atives": 2751,
      "QUAL": 2752,
      "70": 2753,
      "joy": 2754,
      "kW": 2755,
      "ana": 2756,
      "fee": 2757,
      "hold": 2758,
      "icks": 2759,
      "31": 2760,
      "PL": 2761,
      "transactions": 2762,
      "Adverti": 2763,
      "easier": 2764,
      "looks": 2765,
      "once": 2766,
      "ampion": 2767,
      "complete": 2768,
      "deep": 2769,
      "izes": 2770,
      "built": 2771,
      "processes": 2772,
      "ior": 2773,
      "ansion": 2774,
      "along": 2775,
      "guid": 2776,
      "weekly": 2777,
      "detailed": 2778,
      "Pa": 2779,
      "algorith": 2780,
      "predic": 2781,
      "Rem": 2782,
      "loyal": 2783,
      "B2B": 2784,
      "29": 2785,
      "Ber": 2786,
      "essential": 2787,
      "SMEs": 2788,
      "Every": 2789,
      "Ful": 2790,
      "Journey": 2791,
      "ali": 2792,
      "dies": 2793,
      "Money": 2794,
      "ua": 2795,
      "Innov": 2796,
      "tribu": 2797,
      "introduc": 2798,
      "lower": 2799,
      "Commerce": 2800,
      "align": 2801,
      "increasing": 2802,
      "becom": 2803,
      "hy": 2804,
      "thriving": 2805,
      "ho": 2806,
      "ili": 2807,
      "longer": 2808,
      "Phone": 2809,
      "enterprise": 2810,
      "ease": 2811,
      "ified": 2812,
      "afford": 2813,
      "Image": 2814,
      "EQUAL": 2815,
      "Integr": 2816,
      "boarding": 2817,
      "estival": 2818,
      "NCBA": 2819,
      "Prix": 2820,
      "Support": 2821,
      "ihr": 2822,
      "expertise": 2823,
      "July": 2824,
      "Life": 2825,
      "messages": 2826,
      "four": 2827,
      "IT": 2828,
      "hab": 2829,
      "har": 2830,
      "sed": 2831,
      "register": 2832,
      "27": 2833,
      "ca": 2834,
      "kind": 2835,
      "yn": 2836,
      "usually": 2837,
      "sum": 2838,
      "engage": 2839,
      "voc": 2840,
      "August": 2841,
      "agencies": 2842,
      "Trans": 2843,
      "government": 2844,
      "tas": 2845,
      "communities": 2846,
      "complex": 2847,
      "Sch": 2848,
      "exec": 2849,
      "least": 2850,
      "beyond": 2851,
      "result": 2852,
      "Microsoft": 2853,
      "4M": 2854,
      "Connect": 2855,
      "cut": 2856,
      "stop": 2857,
      "Global": 2858,
      "either": 2859,
      "graduates": 2860,
      "imo": 2861,
      "ags": 2862,
      "control": 2863,
      "Competi": 2864,
      "corpor": 2865,
      "achieve": 2866,
      "veil": 2867,
      "langu": 2868,
      "sug": 2869,
      "answers": 2870,
      "lockchain": 2871,
      "crucial": 2872,
      "penalties": 2873,
      "five": 2874,
      "Kamp": 2875,
      "taking": 2876,
      "transaction": 2877,
      "Housing": 2878,
      "conver": 2879,
      "Related": 2880,
      "ials": 2881,
      "Uncover": 2882,
      "risk": 2883,
      "Design": 2884,
      "sense": 2885,
      "yet": 2886,
      "Company": 2887,
      "center": 2888,
      "views": 2889,
      "transparen": 2890,
      "comb": 2891,
      "rem": 2892,
      "acing": 2893,
      "Fa": 2894,
      "scape": 2895,
      "balance": 2896,
      "P1": 2897,
      "avel": 2898,
      "Fl": 2899,
      "towards": 2900,
      "Thank": 2901,
      "abilities": 2902,
      "opt": 2903,
      "Government": 2904,
      "store": 2905,
      "Trending": 2906,
      "pu": 2907,
      "Col": 2908,
      "largest": 2909,
      "fiel": 2910,
      "misola": 2911,
      "Sunmisola": 2912,
      "contri": 2913,
      "CP": 2914,
      "Lev": 2915,
      "birth": 2916,
      "previous": 2917,
      "hours": 2918,
      "insp": 2919,
      "Fir": 2920,
      "Fost": 2921,
      "Ventures": 2922,
      "firm": 2923,
      "Optim": 2924,
      "counts": 2925,
      "htt": 2926,
      "happens": 2927,
      "third": 2928,
      "Dr": 2929,
      "national": 2930,
      "GPT": 2931,
      "breakdown": 2932,
      "prob": 2933,
      "filmmaker": 2934,
      "ift": 2935,
      "Launch": 2936,
      "Video": 2937,
      "Levy": 2938,
      "High": 2939,
      "defaulters": 2940,
      "Vis": 2941,
      "Engage": 2942,
      "bebi": 2943,
      "Agbebi": 2944,
      "Features": 2945,
      "acquisition": 2946,
      "Internship": 2947,
      "friend": 2948,
      "nich": 2949,
      "Absa": 2950,
      "Vote": 2951,
      "Braz": 2952,
      "Tips": 2953,
      "banking": 2954,
      "daily": 2955,
      "reporting": 2956,
      "ism": 2957,
      "Fostering": 2958,
      "improv": 2959,
      "systems": 2960,
      "von": 2961,
      "Plus": 2962,
      "respon": 2963,
      "dedic": 2964,
      "advantage": 2965,
      "pack": 2966,
      "wealth": 2967,
      "evol": 2968,
      "known": 2969,
      "necess": 2970,
      "4G": 2971,
      "TS": 2972,
      "iss": 2973,
      "Consu": 2974,
      "ires": 2975,
      "tail": 2976,
      "called": 2977,
      "entrepreneurs": 2978,
      "oZ": 2979,
      "human": 2980,
      "SI": 2981,
      "project": 2982,
      "ledge": 2983,
      "fees": 2984,
      "Organ": 2985,
      "uals": 2986,
      "giving": 2987,
      "Fal": 2988,
      "download": 2989,
      "learned": 2990,
      "ji": 2991,
      "places": 2992,
      "percent": 2993,
      "group": 2994,
      "landing": 2995,
      "integration": 2996,
      "Industry": 2997,
      "match": 2998,
      "areas": 2999,
      "indic": 3000,
      "landscape": 3001,
      "Vi": 3002,
      "war": 3003,
      "chool": 3004,
      "applications": 3005,
      "td": 3006,
      "Work": 3007,
      "currently": 3008,
      "zW": 3009,
      "Threads": 3010,
      "2017": 3011,
      "audiences": 3012,
      "Pe": 3013,
      "similar": 3014,
      "reasons": 3015,
      "cloud": 3016,
      "direct": 3017,
      "Ama": 3018,
      "return": 3019,
      "sat": 3020,
      "tel": 3021,
      "Regis": 3022,
      "ems": 3023,
      "mine": 3024,
      "starting": 3025,
      "ison": 3026,
      "edi": 3027,
      "save": 3028,
      "sector": 3029,
      "exact": 3030,
      "consist": 3031,
      "Follow": 3032,
      "Foundation": 3033,
      "Website": 3034,
      "Kampala": 3035,
      "followers": 3036,
      "Technolog": 3037,
      "err": 3038,
      "regular": 3039,
      "fra": 3040,
      "Drive": 3041,
      "das": 3042,
      "vacy": 3043,
      "apply": 3044,
      "hop": 3045,
      "finance": 3046,
      "unt": 3047,
      "indust": 3048,
      "selves": 3049,
      "edge": 3050,
      "minim": 3051,
      "generated": 3052,
      "focused": 3053,
      "avo": 3054,
      "Plan": 3055,
      "specialized": 3056,
      "Cy": 3057,
      "toward": 3058,
      "fully": 3059,
      "Comments": 3060,
      "90": 3061,
      "Last": 3062,
      "usa": 3063,
      "BLO": 3064,
      "keeping": 3065,
      "LAT": 3066,
      "Suite": 3067,
      "countries": 3068,
      "UG": 3069,
      "First": 3070,
      "impress": 3071,
      "Ms": 3072,
      "shows": 3073,
      "marter": 3074,
      "85": 3075,
      "child": 3076,
      "created": 3077,
      "Contents": 3078,
      "Copyright": 3079,
      "ina": 3080,
      "atio": 3081,
      "Ah": 3082,
      "electr": 3083,
      "tainment": 3084,
      "Cash": 3085,
      "Subscri": 3086,
      "avoid": 3087,
      "matter": 3088,
      "estab": 3089,
      "generate": 3090,
      "sustainable": 3091,
      "Rw": 3092,
      "swit": 3093,
      "chen": 3094,
      "energy": 3095,
      "relationships": 3096,
      "ania": 3097,
      "tac": 3098,
      "correc": 3099,
      "commerce": 3100,
      "enable": 3101,
      "message": 3102,
      "Black": 3103,
      "Innovation": 3104,
      "onboarding": 3105,
      "agree": 3106,
      "deal": 3107,
      "experts": 3108,
      "suring": 3109,
      "RELAT": 3110,
      "reveal": 3111,
      "RELATED": 3112,
      "ja": 3113,
      "remo": 3114,
      "expansion": 3115,
      "Businesses": 3116,
      "recommend": 3117,
      "spot": 3118,
      "BLOGS": 3119,
      "hou": 3120,
      "ection": 3121,
      "engaging": 3122,
      "descri": 3123,
      "reet": 3124,
      "dashboard": 3125,
      "mium": 3126,
      "cept": 3127,
      "exclus": 3128,
      "Director": 3129,
      "45": 3130,
      "accounting": 3131,
      "networks": 3132,
      "sus": 3133,
      "master": 3134,
      "capital": 3135,
      "rich": 3136,
      "VE": 3137,
      "expenses": 3138,
      "Key": 3139,
      "driving": 3140,
      "Bar": 3141,
      "Gain": 3142,
      "enjoy": 3143,
      "meaning": 3144,
      "FO": 3145,
      "ists": 3146,
      "Ways": 3147,
      "fix": 3148,
      "powerful": 3149,
      "identi": 3150,
      "embr": 3151,
      "goes": 3152,
      "Chall": 3153,
      "Max": 3154,
      "communication": 3155,
      "conven": 3156,
      "Former": 3157,
      "expected": 3158,
      "OF": 3159,
      "bt": 3160,
      "subscribe": 3161,
      "ki": 3162,
      "updated": 3163,
      "intelligence": 3164,
      "profitable": 3165,
      "ief": 3166,
      "organization": 3167,
      "prioriti": 3168,
      "code": 3169,
      "Table": 3170,
      "gative": 3171,
      "elf": 3172,
      "received": 3173,
      "connection": 3174,
      "Sy": 3175,
      "Sur": 3176,
      "sound": 3177,
      "storage": 3178,
      "inclus": 3179,
      "Bef": 3180,
      "band": 3181,
      "Ro": 3182,
      "SD": 3183,
      "ration": 3184,
      "Moran": 3185,
      "NO": 3186,
      "markets": 3187,
      "paying": 3188,
      "piec": 3189,
      "bar": 3190,
      "super": 3191,
      "Before": 3192,
      "Cost": 3193,
      "size": 3194,
      "truth": 3195,
      "va": 3196,
      "young": 3197,
      "valuate": 3198,
      "gl": 3199,
      "formation": 3200,
      "encour": 3201,
      "TA": 3202,
      "numbers": 3203,
      "bs": 3204,
      "ient": 3205,
      "moment": 3206,
      "33": 3207,
      "Bec": 3208,
      "maint": 3209,
      "F1": 3210,
      "him": 3211,
      "refer": 3212,
      "TechMoran": 3213,
      "Win": 3214,
      "gap": 3215,
      "ious": 3216,
      "helpful": 3217,
      "RA": 3218,
      "Econ": 3219,
      "funds": 3220,
      "!!": 3221,
      "Rate": 3222,
      "pret": 3223,
      "Mc": 3224,
      "za": 3225,
      "rest": 3226,
      "ournal": 3227,
      "highly": 3228,
      "utes": 3229,
      "funding": 3230,
      "probably": 3231,
      "dunning": 3232,
      "na": 3233,
      "ensuring": 3234,
      "Loop": 3235,
      "areness": 3236,
      "transparency": 3237,
      "wee": 3238,
      "mic": 3239,
      "Strategy": 3240,
      "55": 3241,
      "Ger": 3242,
      "Hz": 3243,
      "iv": 3244,
      "fort": 3245,
      "cele": 3246,
      "hael": 3247,
      "Tool": 3248,
      "finish": 3249,
      "Entry": 3250,
      "Download": 3251,
      "rk": 3252,
      "rights": 3253,
      "entry": 3254,
      "aft": 3255,
      "automatically": 3256,
      "ls": 3257,
      "selling": 3258,
      "arter": 3259,
      "operating": 3260,
      "thin": 3261,
      "Local": 3262,
      "ChatGPT": 3263,
      "comparison": 3264,
      "adjust": 3265,
      "knowledge": 3266,
      "recognized": 3267,
      "half": 3268,
      "members": 3269,
      "Consumer": 3270,
      "Ba": 3271,
      "retail": 3272,
      "Econom": 3273,
      "phas": 3274,
      "attract": 3275,
      "advoc": 3276,
      "finding": 3277,
      "channel": 3278,
      "Service": 3279,
      "founder": 3280,
      "helping": 3281,
      "flex": 3282,
      "usage": 3283,
      "topics": 3284,
      "ory": 3285,
      "select": 3286,
      "needed": 3287,
      "Policy": 3288,
      "ern": 3289,
      "until": 3290,
      "Random": 3291,
      "ba": 3292,
      "rop": 3293,
      "pul": 3294,
      "training": 3295,
      "Par": 3296,
      "saf": 3297,
      "Then": 3298,
      "bes": 3299,
      "Kes": 3300,
      "articles": 3301,
      "discuss": 3302,
      "Pop": 3303,
      "brings": 3304,
      "continu": 3305,
      "Michael": 3306,
      "innovative": 3307,
      "Tanz": 3308,
      "included": 3309,
      "Other": 3310,
      "reading": 3311,
      "Team": 3312,
      "general": 3313,
      "PESA": 3314,
      "Take": 3315,
      "conf": 3316,
      "assets": 3317,
      "enables": 3318,
      "method": 3319,
      "language": 3320,
      "Nk": 3321,
      "Built": 3322,
      "iate": 3323,
      "treat": 3324,
      "powered": 3325,
      "writ": 3326,
      "thought": 3327,
      "Blockchain": 3328,
      "sich": 3329,
      "chance": 3330,
      "forecasts": 3331,
      "print": 3332,
      "Meet": 3333,
      "efficient": 3334,
      "Smartphones": 3335,
      "education": 3336,
      "Sn": 3337,
      "metric": 3338,
      "oring": 3339,
      "touch": 3340,
      "01": 3341,
      "igin": 3342,
      "effectively": 3343,
      "family": 3344,
      "Car": 3345,
      "FA": 3346,
      "Many": 3347,
      "utive": 3348,
      "unders": 3349,
      "instead": 3350,
      "house": 3351,
      "RL": 3352,
      "else": 3353,
      "party": 3354,
      "limit": 3355,
      "subscribers": 3356,
      "mid": 3357,
      "rets": 3358,
      "Gen": 3359,
      "OJ": 3360,
      "differences": 3361,
      "eine": 3362,
      "Raises": 3363,
      "Berry": 3364,
      "cards": 3365,
      "plate": 3366,
      "conversions": 3367,
      "199": 3368,
      "fresh": 3369,
      "aus": 3370,
      "lack": 3371,
      "mentions": 3372,
      "achieved": 3373,
      "Hub": 3374,
      "prices": 3375,
      "OL": 3376,
      "Buy": 3377,
      "lets": 3378,
      "changing": 3379,
      "join": 3380,
      "City": 3381,
      "dig": 3382,
      "statement": 3383,
      "Dif": 3384,
      "wo": 3385,
      "Fi": 3386,
      "estimon": 3387,
      "CAC": 3388,
      "Hot": 3389,
      "highest": 3390,
      "game": 3391,
      "moder": 3392,
      "cookies": 3393,
      "32": 3394,
      "Fail": 3395,
      "nel": 3396,
      "yours": 3397,
      "author": 3398,
      "Exam": 3399,
      "automation": 3400,
      "methods": 3401,
      "keyword": 3402,
      "42": 3403,
      "kets": 3404,
      "Tanzania": 3405,
      "48": 3406,
      "complet": 3407,
      "celebr": 3408,
      "Sk": 3409,
      "scal": 3410,
      "Addition": 3411,
      "menu": 3412,
      "KP": 3413,
      "consultants": 3414,
      "kt": 3415,
      "eure": 3416,
      "fund": 3417,
      "met": 3418,
      "selec": 3419,
      "Cap": 3420,
      "offici": 3421,
      "uck": 3422,
      "organic": 3423,
      "close": 3424,
      "frastructure": 3425,
      "concer": 3426,
      "anything": 3427,
      "itional": 3428,
      "Monitoring": 3429,
      "client": 3430,
      "individual": 3431,
      "Experiment": 3432,
      "info": 3433,
      "starts": 3434,
      "aci": 3435,
      "initiative": 3436,
      "Apr": 3437,
      "Report": 3438,
      "readers": 3439,
      "promote": 3440,
      "responses": 3441,
      "reli": 3442,
      "stu": 3443,
      "ades": 3444,
      "figure": 3445,
      "gress": 3446,
      "themselves": 3447,
      "StarkW": 3448,
      "StarkWare": 3449,
      "Festival": 3450,
      "minutes": 3451,
      "Subscribe": 3452,
      "appe": 3453,
      "Acai": 3454,
      "races": 3455,
      "sent": 3456,
      "creation": 3457,
      "Series": 3458,
      "cou": 3459,
      "coh": 3460,
      "awareness": 3461,
      "advanced": 3462,
      "tificial": 3463,
      "zV": 3464,
      "survey": 3465,
      "visual": 3466,
      "KM": 3467,
      "Set": 3468,
      "facebook": 3469,
      "holistic": 3470,
      "Next": 3471,
      "38": 3472,
      "bad": 3473,
      "hear": 3474,
      "lessons": 3475,
      "Mw": 3476,
      "testimon": 3477,
      "travel": 3478,
      "ament": 3479,
      "Techmoran": 3480,
      "huge": 3481,
      "took": 3482,
      "Chief": 3483,
      "Euro": 3484,
      "June": 3485,
      "Mass": 3486,
      "remain": 3487,
      "Differ": 3488,
      "Page": 3489,
      "hips": 3490,
      "ption": 3491,
      "upgrad": 3492,
      "Ih": 3493,
      "vol": 3494,
      "Ge": 3495,
      "aba": 3496,
      "spending": 3497,
      "retaining": 3498,
      "Prom": 3499,
      "Early": 3500,
      "required": 3501,
      "Leaders": 3502,
      "Formerly": 3503,
      "ony": 3504,
      "proper": 3505,
      "ained": 3506,
      "Mu": 3507,
      "ination": 3508,
      "according": 3509,
      "iPhone": 3510,
      "una": 3511,
      "ump": 3512,
      "Review": 3513,
      "profile": 3514,
      "KU": 3515,
      "hit": 3516,
      "oder": 3517,
      "stic": 3518,
      "adin": 3519,
      "plus": 3520,
      "aterial": 3521,
      "Ltd": 3522,
      "internal": 3523,
      "Should": 3524,
      "determine": 3525,
      "thentic": 3526,
      "wast": 3527,
      "inch": 3528,
      "aving": 3529,
      "ollar": 3530,
      "primary": 3531,
      "frame": 3532,
      "dedicated": 3533,
      "Emer": 3534,
      "broad": 3535,
      "ables": 3536,
      "compli": 3537,
      "IS": 3538,
      "Intell": 3539,
      "Boy": 3540,
      "Fuliza": 3541,
      "ih": 3542,
      "ku": 3543,
      "capabilities": 3544,
      "Far": 3545,
      "Falcon": 3546,
      "vest": 3547,
      "loss": 3548,
      "Ind": 3549,
      "pretty": 3550,
      "Cr": 3551,
      "processing": 3552,
      "outs": 3553,
      "docu": 3554,
      "technical": 3555,
      "efficiency": 3556,
      "Paladin": 3557,
      "Cal": 3558,
      "Even": 3559,
      "hosted": 3560,
      "kms": 3561,
      "whole": 3562,
      "didn": 3563,
      "Ed": 3564,
      "adio": 3565,
      "diffic": 3566,
      "Payments": 3567,
      "calls": 3568,
      "held": 3569,
      "rend": 3570,
      "calculate": 3571,
      "April": 3572,
      "Cris": 3573,
      "SA": 3574,
      "sn": 3575,
      "Friday": 3576,
      "Any": 3577,
      "relationship": 3578,
      "later": 3579,
      "sZ": 3580,
      "fair": 3581,
      "negative": 3582,
      "write": 3583,
      "frequ": 3584,
      "torial": 3585,
      "believe": 3586,
      "od": 3587,
      "rather": 3588,
      "API": 3589,
      "record": 3590,
      "Sign": 3591,
      "ws": 3592,
      "zon": 3593,
      "sociales": 3594,
      "John": 3595,
      "industries": 3596,
      "interested": 3597,
      "communications": 3598,
      "fall": 3599,
      "smarter": 3600,
      "Burn": 3601,
      "rul": 3602,
      "choice": 3603,
      "CIO": 3604,
      "Fun": 3605,
      "dou": 3606,
      "income": 3607,
      "aper": 3608,
      "depend": 3609,
      "ario": 3610,
      "body": 3611,
      "ored": 3612,
      "twe": 3613,
      "ficer": 3614,
      "highlight": 3615,
      "bringing": 3616,
      "IP": 3617,
      "Stand": 3618,
      "recent": 3619,
      "instance": 3620,
      "recognition": 3621,
      "Q2": 3622,
      "Since": 3623,
      "food": 3624,
      "challenge": 3625,
      "Through": 3626,
      "Information": 3627,
      "Good": 3628,
      "shares": 3629,
      "tasks": 3630,
      "ests": 3631,
      "comments": 3632,
      "plify": 3633,
      "His": 3634,
      "Mad": 3635,
      "mat": 3636,
      "sw": 3637,
      "certific": 3638,
      "Cur": 3639,
      "wel": 3640,
      "vision": 3641,
      "Crisis": 3642,
      "Massimo": 3643,
      "infrastructure": 3644,
      "etc": 3645,
      "Convers": 3646,
      "specifically": 3647,
      "journeys": 3648,
      "satis": 3649,
      "left": 3650,
      "published": 3651,
      "graphics": 3652,
      "ka": 3653,
      "zt": 3654,
      "tian": 3655,
      "Ki": 3656,
      "Sum": 3657,
      "volution": 3658,
      "tribution": 3659,
      "Competitive": 3660,
      "soon": 3661,
      "flows": 3662,
      "Engagement": 3663,
      "activities": 3664,
      "holders": 3665,
      "policy": 3666,
      "sl": 3667,
      "timate": 3668,
      "fine": 3669,
      "lever": 3670,
      "ared": 3671,
      "objec": 3672,
      "Services": 3673,
      "however": 3674,
      "Cons": 3675,
      "Internet": 3676,
      "speak": 3677,
      "loyalty": 3678,
      "Mp": 3679,
      "formul": 3680,
      "izations": 3681,
      "Advertising": 3682,
      "X30": 3683,
      "y5": 3684,
      "convert": 3685,
      "automated": 3686,
      "recently": 3687,
      "LG": 3688,
      "format": 3689,
      "coverage": 3690,
      "photos": 3691,
      "cancellation": 3692,
      "represent": 3693,
      "lost": 3694,
      "Head": 3695,
      "legal": 3696,
      "Race": 3697,
      "ute": 3698,
      "eri": 3699,
      "micro": 3700,
      "HMD": 3701,
      "KSh": 3702,
      "San": 3703,
      "yp": 3704,
      "allowing": 3705,
      "Si": 3706,
      "mach": 3707,
      "ixel": 3708,
      "newsletter": 3709,
      "36": 3710,
      "nat": 3711,
      "pts": 3712,
      "Ann": 3713,
      "managing": 3714,
      "failing": 3715,
      "mentioned": 3716,
      "response": 3717,
      "amb": 3718,
      "officially": 3719,
      "wie": 3720,
      "culture": 3721,
      "Know": 3722,
      "ratio": 3723,
      "asp": 3724,
      "Analyze": 3725,
      "treatment": 3726,
      "Wi": 3727,
      "agency": 3728,
      "standard": 3729,
      "traditional": 3730,
      "RAM": 3731,
      "Congo": 3732,
      "Europe": 3733,
      "El": 3734,
      "wise": 3735,
      "alle": 3736,
      "asking": 3737,
      "suit": 3738,
      "situ": 3739,
      "smaller": 3740,
      "National": 3741,
      "Oj": 3742,
      "increased": 3743,
      "Seas": 3744,
      "particip": 3745,
      "Amazon": 3746,
      "wis": 3747,
      "Influ": 3748,
      "tracts": 3749,
      "application": 3750,
      "Different": 3751,
      "dist": 3752,
      "closed": 3753,
      "testimonials": 3754,
      "Info": 3755,
      "stra": 3756,
      "Program": 3757,
      "Spe": 3758,
      "segment": 3759,
      "talking": 3760,
      "advice": 3761,
      "economy": 3762,
      "exclusive": 3763,
      "ey": 3764,
      "manu": 3765,
      "came": 3766,
      "discussing": 3767,
      "Registration": 3768,
      "Tal": 3769,
      "Want": 3770,
      "Zeit": 3771,
      "Season": 3772,
      "ters": 3773,
      "Billion": 3774,
      "fill": 3775,
      "anti": 3776,
      "generation": 3777,
      "Gl": 3778,
      "RP": 3779,
      "orrow": 3780,
      "titu": 3781,
      "Contin": 3782,
      "professional": 3783,
      "affordable": 3784,
      "youth": 3785,
      "hasht": 3786,
      "launches": 3787,
      "System": 3788,
      "nor": 3789,
      "Day": 3790,
      "Stream": 3791,
      "publish": 3792,
      "contribu": 3793,
      "Pres": 3794,
      "zU": 3795,
      "istics": 3796,
      "urch": 3797,
      "oods": 3798,
      "appear": 3799,
      "visitor": 3800,
      "sensor": 3801,
      "07": 3802,
      "fli": 3803,
      "ideal": 3804,
      "employ": 3805,
      "experiment": 3806,
      "Blue": 3807,
      "compares": 3808,
      "separ": 3809,
      "Target": 3810,
      "origin": 3811,
      "onic": 3812,
      "adap": 3813,
      "deg": 3814,
      "bright": 3815,
      "embracing": 3816,
      "glo": 3817,
      "chi": 3818,
      "graphic": 3819,
      "corporate": 3820,
      "Emerging": 3821,
      "sY": 3822,
      "stake": 3823,
      "aud": 3824,
      "Failed": 3825,
      "authentic": 3826,
      "visibility": 3827,
      "susp": 3828,
      "exactly": 3829,
      "84": 3830,
      "reserved": 3831,
      "lives": 3832,
      "Feed": 3833,
      "Mi": 3834,
      "serve": 3835,
      "transfer": 3836,
      "advance": 3837,
      "excell": 3838,
      "eCommerce": 3839,
      "pol": 3840,
      "problems": 3841,
      "bottom": 3842,
      "necessary": 3843,
      "Year": 3844,
      "walk": 3845,
      "Additionally": 3846,
      "RC": 3847,
      "submit": 3848,
      "taken": 3849,
      "fm": 3850,
      "almost": 3851,
      "Where": 3852,
      "PS": 3853,
      "lights": 3854,
      "pain": 3855,
      "pick": 3856,
      "omm": 3857,
      "iones": 3858,
      "immed": 3859,
      "automate": 3860,
      "straight": 3861,
      "ICT": 3862,
      "eter": 3863,
      "extra": 3864,
      "factors": 3865,
      "Ano": 3866,
      "rup": 3867,
      "tus": 3868,
      "wei": 3869,
      "Reels": 3870,
      "career": 3871,
      "lifetime": 3872,
      "UU": 3873,
      "dynam": 3874,
      "Integrate": 3875,
      "difficult": 3876,
      "acceler": 3877,
      "Another": 3878,
      "solid": 3879,
      "hund": 3880,
      "round": 3881,
      "redes": 3882,
      "ora": 3883,
      "install": 3884,
      "SMS": 3885,
      "equip": 3886,
      "thinking": 3887,
      "recap": 3888,
      "kk": 3889,
      "assist": 3890,
      "44": 3891,
      "Cor": 3892,
      "water": 3893,
      "professionals": 3894,
      "Intelligence": 3895,
      "vity": 3896,
      "former": 3897,
      "capture": 3898,
      "failed": 3899,
      "till": 3900,
      "Nj": 3901,
      "thus": 3902,
      "Who": 3903,
      "Ku": 3904,
      "Pers": 3905,
      "ware": 3906,
      "invo": 3907,
      "const": 3908,
      "ranking": 3909,
      "52": 3910,
      "posting": 3911,
      "ax": 3912,
      "nd": 3913,
      "ults": 3914,
      "kit": 3915,
      "sale": 3916,
      "context": 3917,
      "foot": 3918,
      "sures": 3919,
      "ooking": 3920,
      "final": 3921,
      "recor": 3922,
      "difference": 3923,
      "ENTS": 3924,
      "County": 3925,
      "Salesforce": 3926,
      "six": 3927,
      "stell": 3928,
      "Future": 3929,
      "Burna": 3930,
      "ET": 3931,
      "wid": 3932,
      "acher": 3933,
      "Officer": 3934,
      "tailored": 3935,
      "consistent": 3936,
      "Bro": 3937,
      "Ok": 3938,
      "Show": 3939,
      "push": 3940,
      "ought": 3941,
      "Type": 3942,
      "pil": 3943,
      "usability": 3944,
      "forecasting": 3945,
      "gather": 3946,
      "Bel": 3947,
      "ands": 3948,
      "forum": 3949,
      "award": 3950,
      "continent": 3951,
      "kers": 3952,
      "x5": 3953,
      "ulu": 3954,
      "purpose": 3955,
      "color": 3956,
      "Influenc": 3957,
      "8GB": 3958,
      "Qual": 3959,
      "Communic": 3960,
      "remember": 3961,
      "http": 3962,
      "MU": 3963,
      "Sil": 3964,
      "compared": 3965,
      "Sof": 3966,
      "rz": 3967,
      "ancy": 3968,
      "Dev": 3969,
      "Oper": 3970,
      "Whether": 3971,
      "fans": 3972,
      "tier": 3973,
      "ado": 3974,
      "Maxim": 3975,
      "Write": 3976,
      "AN": 3977,
      "Bre": 3978,
      "pite": 3979,
      "informed": 3980,
      "Categor": 3981,
      "school": 3982,
      "Author": 3983,
      "2G": 3984,
      "winning": 3985,
      "yle": 3986,
      "artist": 3987,
      "progress": 3988,
      "elevate": 3989,
      "virt": 3990,
      "truly": 3991,
      "advertisers": 3992,
      "messaging": 3993,
      "elements": 3994,
      "Sm": 3995,
      "zial": 3996,
      "upgrade": 3997,
      "persons": 3998,
      "currency": 3999,
      "friendly": 4000,
      "ARR": 4001,
      "VP": 4002,
      "cat": 4003,
      "friends": 4004,
      ".)": 4005,
      "Lis": 4006,
      "atu": 4007,
      "interesting": 4008,
      "150": 4009,
      "Bet": 4010,
      "password": 4011,
      "OC": 4012,
      "Q4": 4013,
      "ini": 4014,
      "2012": 4015,
      "Word": 4016,
      "35": 4017,
      "67": 4018,
      "protect": 4019,
      "Instead": 4020,
      "respond": 4021,
      "09": 4022,
      "Sim": 4023,
      "drop": 4024,
      "room": 4025,
      "provided": 4026,
      "Campaign": 4027,
      "Eure": 4028,
      "Hua": 4029,
      "--": 4030,
      "Evaluate": 4031,
      "Model": 4032,
      "medical": 4033,
      "88": 4034,
      "cil": 4035,
      "aming": 4036,
      "shif": 4037,
      "optimizing": 4038,
      "cross": 4039,
      "bots": 4040,
      "affect": 4041,
      "Time": 4042,
      "Huawei": 4043,
      "DJ": 4044,
      "ille": 4045,
      "driver": 4046,
      "wrong": 4047,
      "category": 4048,
      "asked": 4049,
      "Bi": 4050,
      "KES": 4051,
      "Yes": 4052,
      "smo": 4053,
      "ani": 4054,
      "acc": 4055,
      "enabling": 4056,
      ".,": 4057,
      "Well": 4058,
      "dam": 4059,
      "lif": 4060,
      "champion": 4061,
      "variety": 4062,
      "O5": 4063,
      "mal": 4064,
      "international": 4065,
      "handle": 4066,
      "openness": 4067,
      "switch": 4068,
      "ilit": 4069,
      "ceed": 4070,
      "itself": 4071,
      "Dep": 4072,
      "Nz": 4073,
      "People": 4074,
      "je": 4075,
      "altern": 4076,
      "ley": 4077,
      "urg": 4078,
      "prevent": 4079,
      "writer": 4080,
      "Will": 4081,
      "unsubscribe": 4082,
      "websites": 4083,
      "reaching": 4084,
      "Faulu": 4085,
      "scalable": 4086,
      "77": 4087,
      "Extend": 4088,
      "Cent": 4089,
      "foster": 4090,
      "Build": 4091,
      "Public": 4092,
      "FC": 4093,
      "hi": 4094,
      "nu": 4095,
      "pk": 4096,
      "53": 4097,
      "PA": 4098,
      "ni": 4099,
      "confer": 4100,
      "sozial": 4101,
      "improving": 4102,
      "Organize": 4103,
      "Ass": 4104,
      "GA": 4105,
      "opin": 4106,
      "setup": 4107,
      "Month": 4108,
      "Pi": 4109,
      "zed": 4110,
      "drivers": 4111,
      "requires": 4112,
      "Gh": 4113,
      "len": 4114,
      "Josh": 4115,
      "UK": 4116,
      "amaz": 4117,
      "arios": 4118,
      "1000": 4119,
      "?)": 4120,
      "ada": 4121,
      "serves": 4122,
      "Add": 4123,
      "uzz": 4124,
      "IFI": 4125,
      "Live": 4126,
      "ktop": 4127,
      "ender": 4128,
      "Autom": 4129,
      "Building": 4130,
      "SS": 4131,
      "Watch": 4132,
      "tag": 4133,
      "willing": 4134,
      "thanks": 4135,
      "hrain": 4136,
      "Bahrain": 4137,
      "rj": 4138,
      "yo": 4139,
      "accessible": 4140,
      "Deep": 4141,
      "happy": 4142,
      "olume": 4143,
      "connections": 4144,
      "satisf": 4145,
      "Small": 4146,
      "path": 4147,
      "inters": 4148,
      "Material": 4149,
      "NECT": 4150,
      "funnel": 4151,
      "CONNECT": 4152,
      "editorial": 4153,
      "zen": 4154,
      "Like": 4155,
      "recapture": 4156,
      "Fk": 4157,
      "Tem": 4158,
      "Comment": 4159,
      "Core": 4160,
      "efficiently": 4161,
      "Nyeri": 4162,
      "UNIFI": 4163,
      "CONNECTIONS": 4164,
      "UNIFIED": 4165,
      "eper": 4166,
      "performing": 4167,
      "checkout": 4168,
      "Remember": 4169,
      "note": 4170,
      "nothing": 4171,
      "individuals": 4172,
      "wn": 4173,
      "standing": 4174,
      "piece": 4175,
      "Person": 4176,
      "pan": 4177,
      "aries": 4178,
      "Char": 4179,
      "scene": 4180,
      "Ry": 4181,
      "Wind": 4182,
      "ju": 4183,
      "rap": 4184,
      "astic": 4185,
      "financing": 4186,
      "optimization": 4187,
      "sentiment": 4188,
      "reply": 4189,
      "ico": 4190,
      "mehr": 4191,
      "auch": 4192,
      "Entertainment": 4193,
      "CRM": 4194,
      "onstr": 4195,
      "ounds": 4196,
      "safety": 4197,
      "formula": 4198,
      "visitors": 4199,
      "uzzi": 4200,
      "button": 4201,
      "Exp": 4202,
      "settings": 4203,
      "empowering": 4204,
      "algorithm": 4205,
      "89": 4206,
      "Both": 4207,
      "Account": 4208,
      "Tele": 4209,
      "utili": 4210,
      "evolving": 4211,
      "Dav": 4212,
      "dive": 4213,
      "ification": 4214,
      "filiate": 4215,
      "smartphones": 4216,
      "compliance": 4217,
      "Cour": 4218,
      "FI": 4219,
      "Q1": 4220,
      "bound": 4221,
      "sie": 4222,
      "volume": 4223,
      "w5": 4224,
      "larger": 4225,
      "Network": 4226,
      "MC": 4227,
      "Mul": 4228,
      "spl": 4229,
      "itely": 4230,
      "Chier": 4231,
      "Users": 4232,
      "Chieruzzi": 4233,
      "aff": 4234,
      "athmore": 4235,
      "Jam": 4236,
      "mn": 4237,
      "mix": 4238,
      "sts": 4239,
      "Off": 4240,
      "ante": 4241,
      "conduc": 4242,
      "pically": 4243,
      "Privacy": 4244,
      "eye": 4245,
      "creators": 4246,
      "afric": 4247,
      "hon": 4248,
      "basic": 4249,
      "BLE": 4250,
      "depending": 4251,
      "Hi": 4252,
      "Mark": 4253,
      "talent": 4254,
      "developers": 4255,
      "connectivity": 4256,
      "Strathmore": 4257,
      "leadership": 4258,
      "gs": 4259,
      "thous": 4260,
      "offic": 4261,
      "please": 4262,
      "worked": 4263,
      "seamless": 4264,
      "47": 4265,
      "Min": 4266,
      "Sw": 4267,
      "TM": 4268,
      "itter": 4269,
      "experienc": 4270,
      "surpr": 4271,
      "CONT": 4272,
      "bri": 4273,
      "Finance": 4274,
      "49": 4275,
      "Kh": 4276,
      "clu": 4277,
      "basis": 4278,
      "istan": 4279,
      "leader": 4280,
      "Partners": 4281,
      "navigate": 4282,
      "seamlessly": 4283,
      "SIM": 4284,
      "untary": 4285,
      "Examples": 4286,
      "Ob": 4287,
      "unlock": 4288,
      "connected": 4289,
      "Ter": 4290,
      "mil": 4291,
      "105": 4292,
      "developing": 4293,
      "couple": 4294,
      "anyone": 4295,
      "apping": 4296,
      "demonstr": 4297,
      "maximum": 4298,
      "amazing": 4299,
      "claim": 4300,
      "IFA": 4301,
      "TABLE": 4302,
      "Iv": 4303,
      "Pak": 4304,
      "alog": 4305,
      "seg": 4306,
      "seem": 4307,
      "Stay": 4308,
      "Unveil": 4309,
      "owners": 4310,
      "Health": 4311,
      "CONTENTS": 4312,
      "cusing": 4313,
      "Pakistan": 4314,
      "Q3": 4315,
      "street": 4316,
      "sugges": 4317,
      "manufact": 4318,
      "reds": 4319,
      "decid": 4320,
      "rolling": 4321,
      "Schum": 4322,
      "HU": 4323,
      "keny": 4324,
      "ength": 4325,
      "phys": 4326,
      "Cyber": 4327,
      "Schumacher": 4328,
      "hen": 4329,
      "aptop": 4330,
      "endar": 4331,
      "spread": 4332,
      "Gi": 4333,
      "ux": 4334,
      "prospec": 4335,
      "quite": 4336,
      "Ide": 4337,
      "study": 4338,
      "becomes": 4339,
      "Ak": 4340,
      "Rk": 4341,
      "ball": 4342,
      "zT": 4343,
      "Partner": 4344,
      "Value": 4345,
      "Ev": 4346,
      "cas": 4347,
      "rs": 4348,
      "saw": 4349,
      "Recomm": 4350,
      "CIOs": 4351,
      "gateway": 4352,
      "nicht": 4353,
      "hundreds": 4354,
      "FIFA": 4355,
      "mass": 4356,
      "esome": 4357,
      "Big": 4358,
      "Esp": 4359,
      "Xper": 4360,
      "ym": 4361,
      "advis": 4362,
      "Their": 4363,
      "margin": 4364,
      "????": 4365,
      "Ultra": 4366,
      "Consider": 4367,
      "expensive": 4368,
      "fields": 4369,
      "modern": 4370,
      "Ri": 4371,
      "tig": 4372,
      "cycle": 4373,
      "HD": 4374,
      "PO": 4375,
      "bul": 4376,
      "twitter": 4377,
      "tactics": 4378,
      "Bud": 4379,
      "adding": 4380,
      "rial": 4381,
      "quarter": 4382,
      "aux": 4383,
      "Audi": 4384,
      "ER": 4385,
      "gers": 4386,
      "son": 4387,
      "prin": 4388,
      "resso": 4389,
      "atively": 4390,
      "becoming": 4391,
      "Rwanda": 4392,
      "!)": 4393,
      "bon": 4394,
      "AdEsp": 4395,
      "functional": 4396,
      "browsing": 4397,
      "AdEspresso": 4398,
      "ZI": 4399,
      "wants": 4400,
      "Select": 4401,
      "stock": 4402,
      "collect": 4403,
      "41": 4404,
      "XI": 4405,
      "journal": 4406,
      "bust": 4407,
      "2H": 4408,
      "Qs": 4409,
      "Stud": 4410,
      "asset": 4411,
      "supporting": 4412,
      "61": 4413,
      "Mess": 4414,
      "private": 4415,
      "ieren": 4416,
      "Hol": 4417,
      "Popular": 4418,
      "Software": 4419,
      "Mom": 4420,
      "ko": 4421,
      "acity": 4422,
      "area": 4423,
      "throughout": 4424,
      "wait": 4425,
      "favor": 4426,
      "OpenAI": 4427,
      "Ni": 4428,
      "alone": 4429,
      "ido": 4430,
      "Brands": 4431,
      "encia": 4432,
      "Meru": 4433,
      "I5": 4434,
      "M6": 4435,
      "MO": 4436,
      "ica": 4437,
      "conten": 4438,
      "iert": 4439,
      "CL": 4440,
      "Fam": 4441,
      "prep": 4442,
      "Sebas": 4443,
      "categories": 4444,
      "Technologies": 4445,
      "mor": 4446,
      "ustr": 4447,
      "inbox": 4448,
      "ettel": 4449,
      "adoption": 4450,
      "Orange": 4451,
      "ando": 4452,
      "chant": 4453,
      "mAh": 4454,
      "sco": 4455,
      "ambi": 4456,
      "appoint": 4457,
      "saying": 4458,
      "pilau": 4459,
      "Sebastian": 4460,
      "08": 4461,
      "incredi": 4462,
      "intersex": 4463,
      "54": 4464,
      "Ay": 4465,
      "Ka": 4466,
      "solve": 4467,
      "seeing": 4468,
      "Engine": 4469,
      "insightful": 4470,
      "Xperience": 4471,
      "KI": 4472,
      "WS": 4473,
      "associ": 4474,
      "timately": 4475,
      "equity": 4476,
      "natural": 4477,
      "gre": 4478,
      "wonder": 4479,
      "Syok": 4480,
      "OT": 4481,
      "Pig": 4482,
      "nearly": 4483,
      "importance": 4484,
      "organizations": 4485,
      "jobs": 4486,
      "ecom": 4487,
      "imau": 4488,
      "designs": 4489,
      "competitor": 4490,
      "atters": 4491,
      "navigation": 4492,
      "Madfun": 4493,
      "Syokimau": 4494,
      "ense": 4495,
      "seven": 4496,
      "2010": 4497,
      "conversation": 4498,
      "olutions": 4499,
      "Development": 4500,
      "rules": 4501,
      "MadfunXperience": 4502,
      "Mt": 4503,
      "Mus": 4504,
      "NI": 4505,
      "nur": 4506,
      "lease": 4507,
      "univers": 4508,
      "significantly": 4509,
      "sustainability": 4510,
      "UI": 4511,
      "da": 4512,
      "ensures": 4513,
      "atic": 4514,
      "actively": 4515,
      "Invest": 4516,
      "manual": 4517,
      "excited": 4518,
      "Creat": 4519,
      "rout": 4520,
      "si": 4521,
      "zav": 4522,
      "contract": 4523,
      "initial": 4524,
      "Vo": 4525,
      "went": 4526,
      "Chr": 4527,
      "Brazzav": 4528,
      "minimum": 4529,
      "children": 4530,
      "Brazzaville": 4531,
      "eg": 4532,
      "eu": 4533,
      "deeper": 4534,
      "sold": 4535,
      "preferences": 4536,
      "Press": 4537,
      "Q6": 4538,
      "Q8": 4539,
      "Vettel": 4540,
      "maximize": 4541,
      "meaningful": 4542,
      "suspends": 4543,
      "BC": 4544,
      "wins": 4545,
      "proof": 4546,
      "productivity": 4547,
      "branding": 4548,
      "techtrends": 4549,
      "continues": 4550,
      "ecommerce": 4551,
      "Each": 4552,
      "Electr": 4553,
      "Q9": 4554,
      "Today": 4555,
      "Zu": 4556,
      "production": 4557,
      "onso": 4558,
      "actual": 4559,
      "ously": 4560,
      "decide": 4561,
      "colors": 4562,
      "Glo": 4563,
      "slow": 4564,
      "icking": 4565,
      "ago": 4566,
      "Choose": 4567,
      "Archi": 4568,
      "request": 4569,
      "particularly": 4570,
      "Challenge": 4571,
      "zi": 4572,
      "dub": 4573,
      "Opportun": 4574,
      "webinar": 4575,
      "President": 4576,
      "stakeholders": 4577,
      "Mm": 4578,
      "sle": 4579,
      "yl": 4580,
      "chec": 4581,
      "focusing": 4582,
      "300": 4583,
      "LT": 4584,
      "state": 4585,
      "leverage": 4586,
      "viewing": 4587,
      "Pros": 4588,
      "dubbed": 4589,
      "Founder": 4590,
      "Her": 4591,
      "iso": 4592,
      "cir": 4593,
      "Champion": 4594,
      "nnt": 4595,
      "cohort": 4596,
      "Bri": 4597,
      "Um": 4598,
      "dass": 4599,
      "nm": 4600,
      "sending": 4601,
      "berg": 4602,
      "committed": 4603,
      "Newsletter": 4604,
      "dynamic": 4605,
      "Archives": 4606,
      "Du": 4607,
      "G5": 4608,
      "cannot": 4609,
      "Photo": 4610,
      "Premium": 4611,
      "sozialen": 4612,
      "Kon": 4613,
      "W5": 4614,
      "u5": 4615,
      "vable": 4616,
      "upload": 4617,
      "Managing": 4618,
      "charged": 4619,
      "delivered": 4620,
      "lay": 4621,
      "patter": 4622,
      "ids": 4623,
      "institu": 4624,
      "enterprises": 4625,
      "Lever": 4626,
      "sex": 4627,
      "tour": 4628,
      "lined": 4629,
      "Family": 4630,
      "Ha": 4631,
      "sectors": 4632,
      "Also": 4633,
      "facilit": 4634,
      "999": 4635,
      "Influencer": 4636,
      "S24": 4637,
      "sX": 4638,
      "lier": 4639,
      "Launches": 4640,
      "original": 4641,
      "Wel": 4642,
      "marketer": 4643,
      "inclusion": 4644,
      "tab": 4645,
      "unveil": 4646,
      "urer": 4647,
      "likes": 4648,
      "Recommended": 4649,
      "VC": 4650,
      "intu": 4651,
      "proved": 4652,
      "smooth": 4653,
      "spent": 4654,
      "Cancel": 4655,
      "definitely": 4656,
      "Io": 4657,
      "ii": 4658,
      "lose": 4659,
      "brid": 4660,
      "umn": 4661,
      "analyzing": 4662,
      "typically": 4663,
      "Analysis": 4664,
      "Brazil": 4665,
      "Curren": 4666,
      "mag": 4667,
      "template": 4668,
      "Gz": 4669,
      "Mk": 4670,
      "Mut": 4671,
      "Job": 4672,
      "KC": 4673,
      "aut": 4674,
      "length": 4675,
      "tang": 4676,
      "eren": 4677,
      "Kshs": 4678,
      "delivery": 4679,
      "hashtags": 4680,
      "Windows": 4681,
      "games": 4682,
      "notice": 4683,
      "impactful": 4684,
      "Index": 4685,
      "120": 4686,
      "night": 4687,
      "sV": 4688,
      "tos": 4689,
      "Economy": 4690,
      "mistakes": 4691,
      "functions": 4692,
      "correct": 4693,
      "artists": 4694,
      "3Z": 4695,
      "Aw": 4696,
      "Fre": 4697,
      "Its": 4698,
      "ungen": 4699,
      "Frank": 4700,
      "integrated": 4701,
      "partnerships": 4702,
      "SW": 4703,
      "ny": 4704,
      "clicks": 4705,
      "login": 4706,
      "practice": 4707,
      "delivering": 4708,
      "outside": 4709,
      "FB": 4710,
      "Radio": 4711,
      "ee": 4712,
      "fi": 4713,
      "customized": 4714,
      "parts": 4715,
      "rapid": 4716,
      "Ec": 4717,
      "sW": 4718,
      "sal": 4719,
      "worry": 4720,
      "Reply": 4721,
      "respec": 4722,
      "Hy": 4723,
      "dle": 4724,
      "invoice": 4725,
      "Artificial": 4726,
      "reducing": 4727,
      "algorithms": 4728,
      "completely": 4729,
      "CS": 4730,
      "Ko": 4731,
      "Ops": 4732,
      "tz": 4733,
      "episo": 4734,
      "timely": 4735,
      "guidance": 4736,
      "Paid": 4737,
      "techtrendsmedia": 4738,
      "Sc": 4739,
      "renew": 4740,
      "activity": 4741,
      "popul": 4742,
      "Home": 4743,
      "Pap": 4744,
      "kn": 4745,
      "forget": 4746,
      "idi": 4747,
      "beginning": 4748,
      "Ps": 4749,
      "anim": 4750,
      "resolution": 4751,
      "maintain": 4752,
      "Mb": 4753,
      "Q5": 4754,
      "r3": 4755,
      "Require": 4756,
      "Shaba": 4757,
      "integrations": 4758,
      "emerging": 4759,
      "promotion": 4760,
      "hope": 4761,
      "66": 4762,
      "Billing": 4763,
      "Lim": 4764,
      "rI": 4765,
      "zo": 4766,
      "refresh": 4767,
      "tives": 4768,
      "Incre": 4769,
      "field": 4770,
      "BA": 4771,
      "Bx": 4772,
      "Hal": 4773,
      "elines": 4774,
      "clim": 4775,
      "Adv": 4776,
      "runs": 4777,
      "targeted": 4778,
      "Devices": 4779,
      "''": 4780,
      "71": 4781,
      "TC": 4782,
      "ru": 4783,
      "vital": 4784,
      "withdraw": 4785,
      "tribut": 4786,
      "marked": 4787,
      "Because": 4788,
      "58": 4789,
      "KS": 4790,
      "fintech": 4791,
      "spital": 4792,
      "discounts": 4793,
      "greater": 4794,
      "Second": 4795,
      "Standard": 4796,
      "Tip": 4797,
      "dest": 4798,
      "ham": 4799,
      "kh": 4800,
      "kw": 4801,
      "ision": 4802,
      "stack": 4803,
      "omi": 4804,
      "peak": 4805,
      "Reading": 4806,
      "Snap": 4807,
      "Eas": 4808,
      "rank": 4809,
      "agre": 4810,
      "engines": 4811,
      "segments": 4812,
      "improvements": 4813,
      "visit": 4814,
      "k6": 4815,
      "stac": 4816,
      "segmentation": 4817,
      "makers": 4818,
      "spir": 4819,
      "excellent": 4820,
      "intuitive": 4821,
      "TR": 4822,
      "Xia": 4823,
      "sess": 4824,
      "robust": 4825,
      "Published": 4826,
      "thousands": 4827,
      "2I": 4828,
      "bly": 4829,
      "gt": 4830,
      "matters": 4831,
      "trend": 4832,
      "zes": 4833,
      "loor": 4834,
      "discount": 4835,
      "Accounts": 4836,
      "Timiza": 4837,
      "degree": 4838,
      "NG": 4839,
      "tough": 4840,
      "rely": 4841,
      "assess": 4842,
      "CTA": 4843,
      "Improve": 4844,
      "shopping": 4845,
      "ml": 4846,
      "notific": 4847,
      "guar": 4848,
      "leveraging": 4849,
      "250": 4850,
      "banks": 4851,
      "wanted": 4852,
      "podcasts": 4853,
      "Update": 4854,
      "BI": 4855,
      "KW": 4856,
      "Spec": 4857,
      "Wan": 4858,
      "status": 4859,
      "suggest": 4860,
      "Av": 4861,
      "FM": 4862,
      "Mor": 4863,
      "Ns": 4864,
      "title": 4865,
      "ativity": 4866,
      "ception": 4867,
      "initiatives": 4868,
      "Dollar": 4869,
      "Edition": 4870,
      "g5": 4871,
      "late": 4872,
      "sets": 4873,
      "39": 4874,
      "ams": 4875,
      "imens": 4876,
      "trade": 4877,
      "cutting": 4878,
      "percentage": 4879,
      "7th": 4880,
      "score": 4881,
      "Ess": 4882,
      "hl": 4883,
      "inks": 4884,
      "marathon": 4885,
      "programs": 4886,
      "requirements": 4887,
      "involved": 4888,
      "Mag": 4889,
      "West": 4890,
      "Zi": 4891,
      "holds": 4892,
      "document": 4893,
      "agers": 4894,
      "measures": 4895,
      "regional": 4896,
      "Fz": 4897,
      "Kis": 4898,
      "aks": 4899,
      "kr": 4900,
      "challenging": 4901,
      "brief": 4902,
      "68": 4903,
      "KK": 4904,
      "Nor": 4905,
      "RH": 4906,
      "dates": 4907,
      "weeks": 4908,
      "situation": 4909,
      "Maximize": 4910,
      "qq": 4911,
      "preci": 4912,
      "blogs": 4913,
      "considering": 4914,
      "Click": 4915,
      "Xiaomi": 4916,
      "A5": 4917,
      "eras": 4918,
      "increases": 4919,
      "6GB": 4920,
      "Mis": 4921,
      "Mem": 4922,
      "sU": 4923,
      "sm": 4924,
      "moving": 4925,
      "interactions": 4926,
      "buying": 4927,
      "kH": 4928,
      "capacity": 4929,
      "pull": 4930,
      "51": 4931,
      "Mid": 4932,
      "mater": 4933,
      "contr": 4934,
      "teach": 4935,
      "retain": 4936,
      "69": 4937,
      "EU": 4938,
      "compet": 4939,
      "earning": 4940,
      "affiliate": 4941,
      "apped": 4942,
      "processor": 4943,
      "Super": 4944,
      "written": 4945,
      "Central": 4946,
      "KCB": 4947,
      "Tatu": 4948,
      "Was": 4949,
      "bro": 4950,
      "hic": 4951,
      "tooth": 4952,
      "ark": 4953,
      "items": 4954,
      "sometimes": 4955,
      "presents": 4956,
      "alah": 4957,
      "Ky": 4958,
      "branch": 4959,
      "poses": 4960,
      "buyer": 4961,
      "Schedule": 4962,
      "utives": 4963,
      "3G": 4964,
      "Brow": 4965,
      "goods": 4966,
      "ongoing": 4967,
      "Fee": 4968,
      "passion": 4969,
      "Required": 4970,
      "360": 4971,
      "?(": 4972,
      "Amer": 4973,
      "estone": 4974,
      "clicking": 4975,
      "101": 4976,
      "Does": 4977,
      "promotional": 4978,
      "Gem": 4979,
      "Il": 4980,
      "Looking": 4981,
      "Sen": 4982,
      "dur": 4983,
      "kv": 4984,
      "orders": 4985,
      "itions": 4986,
      "feat": 4987,
      "factor": 4988,
      "announce": 4989,
      "registered": 4990,
      "experienced": 4991,
      "kZ": 4992,
      "rise": 4993,
      "igen": 4994,
      "engaged": 4995,
      "ixels": 4996,
      "established": 4997,
      "Bol": 4998,
      "ZF": 4999,
      "creativity": 5000,
      "einen": 5001,
      "graphy": 5002,
      "responsible": 5003,
      "Opportunity": 5004,
      "iately": 5005,
      "sheet": 5006,
      "function": 5007,
      "determin": 5008,
      "NH": 5009,
      "porary": 5010,
      "Chan": 5011,
      "aimed": 5012,
      "Connectivity": 5013,
      "Cer": 5014,
      "II": 5015,
      "ros": 5016,
      "United": 5017,
      "Exec": 5018,
      "standards": 5019,
      "upgrades": 5020,
      "2F": 5021,
      "QR": 5022,
      "Sell": 5023,
      "orts": 5024,
      "ita": 5025,
      "compon": 5026,
      "organis": 5027,
      "iteracy": 5028,
      "folio": 5029,
      "Ho": 5030,
      "gir": 5031,
      "idence": 5032,
      "distribution": 5033,
      "calendar": 5034,
      "Camera": 5035,
      "executives": 5036,
      "appl": 5037,
      "living": 5038,
      "reats": 5039,
      "Story": 5040,
      "Wo": 5041,
      "enthus": 5042,
      "designing": 5043,
      "posed": 5044,
      "supported": 5045,
      "Council": 5046,
      "formats": 5047,
      "flag": 5048,
      "workflows": 5049,
      "minis": 5050,
      "showing": 5051,
      "USB": 5052,
      "encourage": 5053,
      "Call": 5054,
      "j7": 5055,
      "FX": 5056,
      "oz": 5057,
      "Bluetooth": 5058,
      "BM": 5059,
      "Solutions": 5060,
      "bund": 5061,
      "nar": 5062,
      "depart": 5063,
      "Save": 5064,
      "Leg": 5065,
      "34": 5066,
      "Rz": 5067,
      "jZ": 5068,
      "kx": 5069,
      "premium": 5070,
      "law": 5071,
      "immediately": 5072,
      "patterns": 5073,
      "MA": 5074,
      "Pinterest": 5075,
      "Tom": 5076,
      "UX": 5077,
      "VR": 5078,
      "dream": 5079,
      "j6": 5080,
      "lip": 5081,
      "Course": 5082,
      "600": 5083,
      "Die": 5084,
      "Kr": 5085,
      "Kan": 5086,
      "Ziel": 5087,
      "wz": 5088,
      "estim": 5089,
      "provider": 5090,
      "tracks": 5091,
      "cs": 5092,
      "hot": 5093,
      "nt": 5094,
      "veness": 5095,
      "inspir": 5096,
      "Gs": 5097,
      "Nd": 5098,
      "pj": 5099,
      "py": 5100,
      "subject": 5101,
      "pair": 5102,
      "Optimize": 5103,
      "Study": 5104,
      "GZ": 5105,
      "Ow": 5106,
      "R2": 5107,
      "ZE": 5108,
      "prec": 5109,
      "78": 5110,
      "7s": 5111,
      "CH": 5112,
      "FH": 5113,
      "NM": 5114,
      "Ve": 5115,
      "unit": 5116,
      "obstac": 5117,
      "Leave": 5118,
      "Def": 5119,
      "kX": 5120,
      "rd": 5121,
      "revolution": 5122,
      "exter": 5123,
      "Under": 5124,
      "secrets": 5125,
      "reality": 5126,
      "promoting": 5127,
      "General": 5128,
      "electronic": 5129,
      "Half": 5130,
      ":-": 5131,
      "task": 5132,
      "signed": 5133,
      "Experience": 5134,
      "Technology": 5135,
      "Summit": 5136,
      "79": 5137,
      "Palah": 5138,
      "Sund": 5139,
      "euch": 5140,
      "p3": 5141,
      "eline": 5142,
      "highlights": 5143,
      "Prot": 5144,
      "providers": 5145,
      "German": 5146,
      "Palahala": 5147,
      "FS": 5148,
      "Mail": 5149,
      "g9": 5150,
      "nice": 5151,
      "yc": 5152,
      "mental": 5153,
      "cuit": 5154,
      "clean": 5155,
      "Ks": 5156,
      "User": 5157,
      "cing": 5158,
      "adds": 5159,
      "prop": 5160,
      "ditions": 5161,
      "releases": 5162,
      "handles": 5163,
      "Break": 5164,
      "N3": 5165,
      "ather": 5166,
      "tit": 5167,
      "Rev": 5168,
      "enhanced": 5169,
      "PesaPap": 5170,
      "Vivo": 5171,
      "Ham": 5172,
      "gaming": 5173,
      "qZ": 5174,
      "safe": 5175,
      "gapixel": 5176,
      "reliable": 5177,
      "separate": 5178,
      ");": 5179,
      ".?": 5180,
      "Nico": 5181,
      "inate": 5182,
      "style": 5183,
      "Grad": 5184,
      "expectations": 5185,
      "pued": 5186,
      "DS": 5187,
      "Inhal": 5188,
      "ashion": 5189,
      "supports": 5190,
      "VV": 5191,
      "rG": 5192,
      "stri": 5193,
      "stats": 5194,
      "itch": 5195,
      "urs": 5196,
      "aciones": 5197,
      "offered": 5198,
      "healthcare": 5199,
      "FT": 5200,
      "PM": 5201,
      "sind": 5202,
      "listen": 5203,
      "Airways": 5204,
      "flexibility": 5205,
      "KE": 5206,
      "Sat": 5207,
      "ffici": 5208,
      "mu": 5209,
      "staff": 5210,
      "modu": 5211,
      "boards": 5212,
      "Community": 5213,
      "CA": 5214,
      "Please": 5215,
      "kV": 5216,
      "lens": 5217,
      "Think": 5218,
      "ollower": 5219,
      "corner": 5220,
      "machine": 5221,
      "62": 5222,
      "Kw": 5223,
      "LEA": 5224,
      "PI": 5225,
      "zer": 5226,
      "Whats": 5227,
      "254": 5228,
      "integrate": 5229,
      "stuff": 5230,
      "Mac": 5231,
      "Nam": 5232,
      "inance": 5233,
      "ultimately": 5234,
      "awesome": 5235,
      "Secrets": 5236,
      "senior": 5237,
      "Listening": 5238,
      "Mh": 5239,
      "bill": 5240,
      "ined": 5241,
      "ert": 5242,
      "rema": 5243,
      "suc": 5244,
      "reson": 5245,
      "commiss": 5246,
      "improved": 5247,
      "Executive": 5248,
      "remains": 5249,
      "Card": 5250,
      "Old": 5251,
      "tet": 5252,
      "auti": 5253,
      "ireless": 5254,
      "Startups": 5255,
      "expanding": 5256,
      "Host": 5257,
      "WW": 5258,
      "agen": 5259,
      "Insurance": 5260,
      "bigger": 5261,
      "Quality": 5262,
      "Q7": 5263,
      "URL": 5264,
      "telling": 5265,
      "agine": 5266,
      "sequ": 5267,
      "serious": 5268,
      "camp": 5269,
      "Recurring": 5270,
      "Algorith": 5271,
      "investments": 5272,
      "scenario": 5273,
      "3Y": 5274,
      "Mq": 5275,
      "V9": 5276,
      "sT": 5277,
      "lots": 5278,
      "privacy": 5279,
      "predict": 5280,
      "Challeng": 5281,
      "cell": 5282,
      "iOS": 5283,
      "rating": 5284,
      "helped": 5285,
      "perspec": 5286,
      "flexible": 5287,
      "shifting": 5288,
      "satisfaction": 5289,
      "Multi": 5290,
      "DTB": 5291,
      "RX": 5292,
      "Send": 5293,
      "ech": 5294,
      "v5": 5295,
      "zah": 5296,
      "tele": 5297,
      "unden": 5298,
      "offerings": 5299,
      "runners": 5300,
      "operational": 5301,
      "02": 5302,
      "Main": 5303,
      "dd": 5304,
      "mig": 5305,
      "nk": 5306,
      "wall": 5307,
      "wider": 5308,
      "depos": 5309,
      "strug": 5310,
      "manually": 5311,
      "depends": 5312,
      "-.": 5313,
      "BO": 5314,
      "bus": 5315,
      "mb": 5316,
      "forms": 5317,
      "index": 5318,
      "43": 5319,
      "V5": 5320,
      "vy": 5321,
      "oosing": 5322,
      "grup": 5323,
      "portfolio": 5324,
      "timing": 5325,
      "Instant": 5326,
      "investing": 5327,
      "occur": 5328,
      "regularly": 5329,
      "contenido": 5330,
      "EUG": 5331,
      "N2": 5332,
      "sizes": 5333,
      "generally": 5334,
      "advocates": 5335,
      "kI": 5336,
      "sam": 5337,
      "dual": 5338,
      "haven": 5339,
      "hands": 5340,
      "streamline": 5341,
      "https": 5342,
      "aspect": 5343,
      "constantly": 5344,
      "Je": 5345,
      "Nights": 5346,
      "W9": 5347,
      "cause": 5348,
      "icity": 5349,
      "ulture": 5350,
      "quote": 5351,
      "debt": 5352,
      "Reach": 5353,
      "Results": 5354,
      "risks": 5355,
      "considered": 5356,
      "WhatsApp": 5357,
      "4K": 5358,
      "?.": 5359,
      "PC": 5360,
      "enty": 5361,
      "ENE": 5362,
      "clearly": 5363,
      "Grader": 5364,
      "Wa": 5365,
      "kb": 5366,
      "stages": 5367,
      "cies": 5368,
      "Stu": 5369,
      "techmoran": 5370,
      "commercial": 5371,
      "Conversions": 5372,
      "DD": 5373,
      "OKU": 5374,
      "ZZ": 5375,
      "aur": 5376,
      "mt": 5377,
      "map": 5378,
      "shap": 5379,
      "cool": 5380,
      "Act": 5381,
      "Applic": 5382,
      "TechNights": 5383,
      "StartupEast": 5384,
      "PLY": 5385,
      "alternative": 5386,
      "EUGENE": 5387,
      "OKUMU": 5388,
      "RS": 5389,
      "pros": 5390,
      "uru": 5391,
      "neh": 5392,
      "REPLY": 5393,
      "phase": 5394,
      "LEAVE": 5395,
      "37": 5396,
      "LO": 5397,
      "Wal": 5398,
      "accept": 5399,
      "SERP": 5400,
      "consent": 5401,
      "Beyond": 5402,
      "raise": 5403,
      "demographics": 5404,
      "Visa": 5405,
      "94": 5406,
      "Mal": 5407,
      "kK": 5408,
      "rM": 5409,
      "zero": 5410,
      "losing": 5411,
      "sho": 5412,
      "shirt": 5413,
      "Powered": 5414,
      "decided": 5415,
      "Challenges": 5416,
      "2y": 5417,
      "Floor": 5418,
      "mas": 5419,
      "previously": 5420,
      "Survey": 5421,
      "Capital": 5422,
      "fostering": 5423,
      "ned": 5424,
      "confirm": 5425,
      "illa": 5426,
      "cameras": 5427,
      "Skills": 5428,
      "Gemini": 5429,
      "Hack": 5430,
      "VI": 5431,
      "lete": 5432,
      "effect": 5433,
      "express": 5434,
      "medium": 5435,
      "olicies": 5436,
      "invoices": 5437,
      "Ye": 5438,
      "emphas": 5439,
      "seems": 5440,
      "Price": 5441,
      "Flash": 5442,
      "Speaking": 5443,
      "tangible": 5444,
      "Zielgrup": 5445,
      "56": 5446,
      "Wenn": 5447,
      "YX": 5448,
      "Z6": 5449,
      "v9": 5450,
      "yd": 5451,
      "shor": 5452,
      "covered": 5453,
      "personas": 5454,
      "acquired": 5455,
      "introduces": 5456,
      "opinion": 5457,
      "2z": 5458,
      "Ru": 5459,
      "fied": 5460,
      "jW": 5461,
      "anchor": 5462,
      "OLED": 5463,
      "Announ": 5464,
      "ively": 5465,
      "pow": 5466,
      "u9": 5467,
      "ope": 5468,
      "changed": 5469,
      "lands": 5470,
      "employee": 5471,
      "budgets": 5472,
      "scenarios": 5473,
      "adapt": 5474,
      "catch": 5475,
      "t5": 5476,
      "tags": 5477,
      "wir": 5478,
      "upon": 5479,
      "Sahar": 5480,
      "Youth": 5481,
      "ploy": 5482,
      "cryp": 5483,
      "Ask": 5484,
      "Personal": 5485,
      "Glovo": 5486,
      "module": 5487,
      "2K": 5488,
      "46": 5489,
      "BS": 5490,
      "MF": 5491,
      "MI": 5492,
      "RF": 5493,
      "YI": 5494,
      "burn": 5495,
      "pO": 5496,
      "r9": 5497,
      "behaviors": 5498,
      "functionality": 5499,
      ".-": 5500,
      "5000": 5501,
      "Laptop": 5502,
      "kF": 5503,
      "sports": 5504,
      "zur": 5505,
      "ambu": 5506,
      "concerns": 5507,
      "Cu": 5508,
      "bally": 5509,
      "ffer": 5510,
      "gun": 5511,
      "uter": 5512,
      "David": 5513,
      "Award": 5514,
      "Bit": 5515,
      "M4": 5516,
      "zum": 5517,
      "ino": 5518,
      "andem": 5519,
      "atever": 5520,
      "intent": 5521,
      "prospects": 5522,
      "Kq": 5523,
      "WE": 5524,
      "sN": 5525,
      "wg": 5526,
      "ining": 5527,
      "2013": 5528,
      "physical": 5529,
      "Rj": 5530,
      "Test": 5531,
      "fers": 5532,
      "lab": 5533,
      "mode": 5534,
      "outstanding": 5535,
      "instant": 5536,
      "puts": 5537,
      "prioritizing": 5538,
      "Leadership": 5539,
      "AF": 5540,
      "RG": 5541,
      "zf": 5542,
      "weet": 5543,
      "deals": 5544,
      "aware": 5545,
      "Ghana": 5546,
      "Leverage": 5547,
      "sessions": 5548,
      "crypto": 5549,
      "Har": 5550,
      "MT": 5551,
      "Nut": 5552,
      "kl": 5553,
      "wc": 5554,
      "Inclu": 5555,
      "tickets": 5556,
      "manager": 5557,
      "Ener": 5558,
      "benchmar": 5559,
      "KPIs": 5560,
      "7c": 5561,
      "LE": 5562,
      "bk": 5563,
      "tes": 5564,
      "exist": 5565,
      "phr": 5566,
      "operate": 5567,
      "facility": 5568,
      "profitability": 5569,
      "Alex": 5570,
      "nc": 5571,
      "edition": 5572,
      "stated": 5573,
      "ama": 5574,
      "unately": 5575,
      "concent": 5576,
      "generating": 5577,
      "pects": 5578,
      "Board": 5579,
      "purchases": 5580,
      "partnering": 5581,
      "Office": 5582,
      "Tax": 5583,
      "Vm": 5584,
      "syn": 5585,
      "wv": 5586,
      "erve": 5587,
      "cience": 5588,
      "Provide": 5589,
      "transforming": 5590,
      "ARPU": 5591,
      "Enterpr": 5592,
      "impressive": 5593,
      "Terms": 5594,
      "Sunday": 5595,
      "6z": 5596,
      "72": 5597,
      "Ip": 5598,
      "Kk": 5599,
      "elec": 5600,
      "kom": 5601,
      "pour": 5602,
      "quid": 5603,
      "clar": 5604,
      "ails": 5605,
      "True": 5606,
      "Farmers": 5607,
      "59": 5608,
      "Bird": 5609,
      "MS": 5610,
      "MTB": 5611,
      "NN": 5612,
      "iP": 5613,
      "m4": 5614,
      "w2": 5615,
      "zation": 5616,
      "emium": 5617,
      "frames": 5618,
      "poor": 5619,
      "Child": 5620,
      "owned": 5621,
      "prompts": 5622,
      "Private": 5623,
      "holiday": 5624,
      "Cloud": 5625,
      "73": 5626,
      "Battery": 5627,
      "Mz": 5628,
      "kf": 5629,
      "rO": 5630,
      "ellow": 5631,
      "profits": 5632,
      "prize": 5633,
      "MPESA": 5634,
      "enhancing": 5635,
      "majority": 5636,
      "ML": 5637,
      "Pol": 5638,
      "px": 5639,
      "w9": 5640,
      "comput": 5641,
      "scr": 5642,
      "therefore": 5643,
      "browser": 5644,
      "virtual": 5645,
      "5m": 5646,
      "F9": 5647,
      "I4": 5648,
      "ZK": 5649,
      "zwer": 5650,
      "compelling": 5651,
      "Chris": 5652,
      "auto": 5653,
      "transition": 5654,
      "showcase": 5655,
      "protection": 5656,
      "Monthly": 5657,
      "split": 5658,
      "Navig": 5659,
      "ei": 5660,
      "lu": 5661,
      "Franc": 5662,
      "identity": 5663,
      "poli": 5664,
      "checking": 5665,
      "Pat": 5666,
      "Ti": 5667,
      "rH": 5668,
      "peer": 5669,
      "obvious": 5670,
      "earned": 5671,
      "ifying": 5672,
      "africa": 5673,
      "inspiration": 5674,
      "NX": 5675,
      "nut": 5676,
      "ych": 5677,
      "iles": 5678,
      "vehic": 5679,
      "conditions": 5680,
      "creates": 5681,
      "Finally": 5682,
      "worldwide": 5683,
      "Login": 5684,
      "Effec": 5685,
      "Transform": 5686,
      "establish": 5687,
      "Unveils": 5688,
      "BH": 5689,
      "GJ": 5690,
      "Gj": 5691,
      "k9": 5692,
      "shift": 5693,
      "creator": 5694,
      "entially": 5695,
      "reflec": 5696,
      "Designs": 5697,
      "A3": 5698,
      "Bon": 5699,
      "Dy": 5700,
      "MB": 5701,
      "Mj": 5702,
      "NA": 5703,
      "rule": 5704,
      "wind": 5705,
      "trig": 5706,
      "hair": 5707,
      "flash": 5708,
      "players": 5709,
      "strength": 5710,
      "CF": 5711,
      "OQ": 5712,
      "SZ": 5713,
      "itr": 5714,
      "accep": 5715,
      "brick": 5716,
      "Brid": 5717,
      "putting": 5718,
      "certificate": 5719,
      "crow": 5720,
      "vz": 5721,
      "w6": 5722,
      "ane": 5723,
      "chart": 5724,
      "basa": 5725,
      "entertainment": 5726,
      "purposes": 5727,
      "clos": 5728,
      "Better": 5729,
      "Energy": 5730,
      "76": 5731,
      "Cir": 5732,
      "Ld": 5733,
      "bility": 5734,
      "usion": 5735,
      "approved": 5736,
      "spect": 5737,
      "counter": 5738,
      "valid": 5739,
      "flat": 5740,
      "promise": 5741,
      "central": 5742,
      "Generative": 5743,
      "DE": 5744,
      "Kc": 5745,
      "QL": 5746,
      "YY": 5747,
      "i6": 5748,
      "wZ": 5749,
      "Intro": 5750,
      "plays": 5751,
      "Hey": 5752,
      "256GB": 5753,
      "wasting": 5754,
      "Category": 5755,
      "protected": 5756,
      "Welcome": 5757,
      "'&": 5758,
      "HR": 5759,
      "pI": 5760,
      "sor": 5761,
      "session": 5762,
      "turing": 5763,
      "eless": 5764,
      "agents": 5765,
      "define": 5766,
      "umb": 5767,
      "Stage": 5768,
      "analyzed": 5769,
      "regard": 5770,
      "blue": 5771,
      "Having": 5772,
      "Lond": 5773,
      "U9": 5774,
      "ZH": 5775,
      "jv": 5776,
      "pz": 5777,
      "icon": 5778,
      "keit": 5779,
      "locking": 5780,
      "knows": 5781,
      "Benef": 5782,
      "happening": 5783,
      "Mombasa": 5784,
      ")-": 5785,
      "DA": 5786,
      "Om": 5787,
      "fen": 5788,
      "sJ": 5789,
      "opens": 5790,
      "temporary": 5791,
      "increasingly": 5792,
      "error": 5793,
      "Become": 5794,
      "London": 5795,
      "PH": 5796,
      "ZM": 5797,
      "c9": 5798,
      "city": 5799,
      "eth": 5800,
      "fant": 5801,
      "jet": 5802,
      "lt": 5803,
      "qm": 5804,
      "sQ": 5805,
      "whel": 5806,
      "owner": 5807,
      "maybe": 5808,
      "Lewis": 5809,
      "bloggers": 5810,
      "Strategies": 5811,
      "iliar": 5812,
      "weez": 5813,
      "frequency": 5814,
      "double": 5815,
      "succeed": 5816,
      "Care": 5817,
      "Ou": 5818,
      "Q10": 5819,
      "SK": 5820,
      "Ur": 5821,
      "WV": 5822,
      "kJ": 5823,
      "favorite": 5824,
      "institutions": 5825,
      "64": 5826,
      "FY": 5827,
      "Mit": 5828,
      "Storage": 5829,
      "bur": 5830,
      "kg": 5831,
      "attracts": 5832,
      "anya": 5833,
      "Netzwer": 5834,
      "transformation": 5835,
      "defining": 5836,
      "saving": 5837,
      "Broken": 5838,
      "LL": 5839,
      "R3": 5840,
      "Rm": 5841,
      "pable": 5842,
      "ato": 5843,
      "ology": 5844,
      "communicate": 5845,
      "introduced": 5846,
      "contribut": 5847,
      "European": 5848,
      "GD": 5849,
      "Kx": 5850,
      "Tit": 5851,
      "Yu": 5852,
      "jV": 5853,
      "kq": 5854,
      "aspects": 5855,
      "histor": 5856,
      "enabled": 5857,
      "clusion": 5858,
      "advocacy": 5859,
      "commission": 5860,
      "06": 5861,
      "98": 5862,
      "kc": 5863,
      "inary": 5864,
      "edit": 5865,
      "acter": 5866,
      "umia": 5867,
      "2011": 5868,
      "Spot": 5869,
      "cookie": 5870,
      "selected": 5871,
      "63": 5872,
      "?!": 5873,
      "Edi": 5874,
      "Vl": 5875,
      "hiring": 5876,
      "wf": 5877,
      "remind": 5878,
      "chips": 5879,
      "Things": 5880,
      "urb": 5881,
      "earlier": 5882,
      "facing": 5883,
      "Maybe": 5884,
      "Ihre": 5885,
      "Streamline": 5886,
      "spirit": 5887,
      ")'": 5888,
      "GC": 5889,
      "Mn": 5890,
      "ites": 5891,
      "assu": 5892,
      "listed": 5893,
      "simpl": 5894,
      "release": 5895,
      "selfie": 5896,
      "familiar": 5897,
      "convenience": 5898,
      "Advanced": 5899,
      "YO": 5900,
      "Zo": 5901,
      "policies": 5902,
      "xc": 5903,
      "motiv": 5904,
      "follows": 5905,
      "cyber": 5906,
      "involves": 5907,
      "cancell": 5908,
      "conferences": 5909,
      "tv": 5910,
      "cher": 5911,
      "megapixel": 5912,
      "supply": 5913,
      "stores": 5914,
      "welcome": 5915,
      "Limited": 5916,
      "3D": 5917,
      "iest": 5918,
      "kN": 5919,
      "reported": 5920,
      "Banking": 5921,
      "Egy": 5922,
      "cq": 5923,
      "ler": 5924,
      "agon": 5925,
      "eventually": 5926,
      "Bla": 5927,
      "G2": 5928,
      "Medi": 5929,
      "gq": 5930,
      "gar": 5931,
      "nes": 5932,
      "p9": 5933,
      "tiveness": 5934,
      "unless": 5935,
      "aband": 5936,
      "Techweez": 5937,
      "files": 5938,
      "Optimization": 5939,
      "niche": 5940,
      "FAQs": 5941,
      "Continue": 5942,
      "brightness": 5943,
      "Protection": 5944,
      "A1": 5945,
      "Fy": 5946,
      "PD": 5947,
      "kE": 5948,
      "nation": 5949,
      "vous": 5950,
      "exchange": 5951,
      "resource": 5952,
      "venues": 5953,
      "Total": 5954,
      "merchant": 5955,
      "Feb": 5956,
      "promises": 5957,
      "Despite": 5958,
      "exciting": 5959,
      "Saharan": 5960,
      "Eth": 5961,
      "School": 5962,
      "Tw": 5963,
      "Yd": 5964,
      "cn": 5965,
      "hood": 5966,
      "iq": 5967,
      "rr": 5968,
      "vg": 5969,
      "complic": 5970,
      "concept": 5971,
      "mov": 5972,
      "covers": 5973,
      "craf": 5974,
      "influence": 5975,
      "playing": 5976,
      "winner": 5977,
      "Coast": 5978,
      "foundation": 5979,
      "Setting": 5980,
      "Ros": 5981,
      "SV": 5982,
      "W1": 5983,
      "ional": 5984,
      "ounding": 5985,
      "assad": 5986,
      "Driven": 5987,
      "chatbot": 5988,
      "Satur": 5989,
      "GO": 5990,
      "Journal": 5991,
      "Kg": 5992,
      "cket": 5993,
      "nature": 5994,
      "meant": 5995,
      "Really": 5996,
      "Appro": 5997,
      "approval": 5998,
      "curi": 5999,
      "Canva": 6000,
      "framework": 6001,
      "enthusia": 6002,
      "Tus": 6003,
      "Y6": 6004,
      "eps": 6005,
      "vary": 6006,
      "xn": 6007,
      "scrolling": 6008,
      "workshop": 6009,
      "elson": 6010,
      "winners": 6011,
      "recognize": 6012,
      "levels": 6013,
      "marginal": 6014,
      "Kris": 6015,
      "Oq": 6016,
      "bills": 6017,
      "fashion": 6018,
      "haps": 6019,
      "ura": 6020,
      "shot": 6021,
      "noted": 6022,
      "Unter": 6023,
      "otes": 6024,
      "connecting": 6025,
      "hosts": 6026,
      "implementing": 6027,
      "Column": 6028,
      "globally": 6029,
      "Cred": 6030,
      "Eq": 6031,
      "G4": 6032,
      "Hero": 6033,
      "Sar": 6034,
      "kR": 6035,
      "kj": 6036,
      "member": 6037,
      "nen": 6038,
      "ury": 6039,
      "overwhel": 6040,
      "fline": 6041,
      "remote": 6042,
      "stick": 6043,
      "Mpesa": 6044,
      "massive": 6045,
      "-,": 6046,
      "3H": 6047,
      "During": 6048,
      "Ic": 6049,
      "Nelson": 6050,
      "Vs": 6051,
      "kin": 6052,
      "sM": 6053,
      "yq": 6054,
      "produce": 6055,
      "desktop": 6056,
      "ousel": 6057,
      "Although": 6058,
      "andemic": 6059,
      "TI": 6060,
      "Way": 6061,
      "bor": 6062,
      "yu": 6063,
      "beer": 6064,
      "cio": 6065,
      "backed": 6066,
      "careers": 6067,
      "Education": 6068,
      "Hc": 6069,
      "OR": 6070,
      "sR": 6071,
      "fraud": 6072,
      "appreci": 6073,
      "managers": 6074,
      "Display": 6075,
      "ryp": 6076,
      "Security": 6077,
      "chools": 6078,
      "explain": 6079,
      "Calcul": 6080,
      "?:": 6081,
      "I9": 6082,
      "Lab": 6083,
      "Td": 6084,
      "YN": 6085,
      "dar": 6086,
      "lm": 6087,
      "plenty": 6088,
      "extrem": 6089,
      "workflow": 6090,
      "bidding": 6091,
      "switched": 6092,
      "I6": 6093,
      "Kal": 6094,
      "Kom": 6095,
      "Mv": 6096,
      "UA": 6097,
      "sy": 6098,
      "Safe": 6099,
      "Exchange": 6100,
      "persona": 6101,
      "wallet": 6102,
      "CC": 6103,
      "F6": 6104,
      "MJ": 6105,
      "Matt": 6106,
      "Rv": 6107,
      "df": 6108,
      "kY": 6109,
      "spr": 6110,
      "igent": 6111,
      "apan": 6112,
      "scaling": 6113,
      "optimal": 6114,
      "focuses": 6115,
      "statistics": 6116,
      "incenti": 6117,
      "prioritize": 6118,
      "guarante": 6119,
      "8c": 6120,
      "Bk": 6121,
      "Kar": 6122,
      "Py": 6123,
      "iQ": 6124,
      "kann": 6125,
      "rW": 6126,
      "yes": 6127,
      "attr": 6128,
      "andy": 6129,
      "youts": 6130,
      "qui": 6131,
      "lists": 6132,
      "Coming": 6133,
      "missing": 6134,
      "anned": 6135,
      "guidelines": 6136,
      "package": 6137,
      "WordPress": 6138,
      "):": 6139,
      "2k": 6140,
      "EB": 6141,
      "Mg": 6142,
      "Med": 6143,
      "jm": 6144,
      "rw": 6145,
      "tap": 6146,
      "tone": 6147,
      "colle": 6148,
      "Safari": 6149,
      "France": 6150,
      "expanded": 6151,
      "Minis": 6152,
      "extremely": 6153,
      "7z": 6154,
      "Gq": 6155,
      "KH": 6156,
      "Kp": 6157,
      "dh": 6158,
      "j9": 6159,
      "oS": 6160,
      "ptions": 6161,
      "thank": 6162,
      "elt": 6163,
      "craft": 6164,
      "recommendations": 6165,
      "participants": 6166,
      "Willi": 6167,
      "associated": 6168,
      "?,": 6169,
      "DC": 6170,
      "NT": 6171,
      "fs": 6172,
      "jz": 6173,
      "w1": 6174,
      "xi": 6175,
      "State": 6176,
      "audio": 6177,
      "decre": 6178,
      "carry": 6179,
      "submitting": 6180,
      "Silver": 6181,
      "girls": 6182,
      "8S": 6183,
      "Bas": 6184,
      "Fv": 6185,
      "ME": 6186,
      "Tn": 6187,
      "gc": 6188,
      "akes": 6189,
      "variations": 6190,
      "stronger": 6191,
      "contribute": 6192,
      "Budget": 6193,
      "Zm": 6194,
      "ende": 6195,
      "veys": 6196,
      "marks": 6197,
      "compat": 6198,
      "suppl": 6199,
      "Discount": 6200,
      "azo": 6201,
      "Beitr": 6202,
      "raised": 6203,
      "fingerprint": 6204,
      "haben": 6205,
      "maintaining": 6206,
      "Moroc": 6207,
      ")&": 6208,
      "-&": 6209,
      "Ep": 6210,
      "Ly": 6211,
      "Links": 6212,
      "P2": 6213,
      "R6": 6214,
      "ZS": 6215,
      "mc": 6216,
      "moun": 6217,
      "sI": 6218,
      "arily": 6219,
      "dead": 6220,
      "augh": 6221,
      "tried": 6222,
      "mentor": 6223,
      "priority": 6224,
      "continued": 6225,
      "Mutual": 6226,
      "NV": 6227,
      "O4": 6228,
      "QI": 6229,
      "Scal": 6230,
      "kz": 6231,
      "lr": 6232,
      "vor": 6233,
      "managed": 6234,
      "Move": 6235,
      "farmers": 6236,
      "Blaze": 6237,
      "FW": 6238,
      "MW": 6239,
      "ZB": 6240,
      "pA": 6241,
      "zy": 6242,
      "throw": 6243,
      "ressing": 6244,
      "ollars": 6245,
      "ibar": 6246,
      "wouldn": 6247,
      "developed": 6248,
      "millions": 6249,
      "positioning": 6250,
      "9c": 6251,
      "Dl": 6252,
      "Et": 6253,
      "HA": 6254,
      "yj": 6255,
      "stone": 6256,
      "spons": 6257,
      "Brit": 6258,
      "paralle": 6259,
      "Being": 6260,
      "launching": 6261,
      "McL": 6262,
      "suitable": 6263,
      "5v": 6264,
      "Dd": 6265,
      "NW": 6266,
      "SY": 6267,
      "lap": 6268,
      "oh": 6269,
      "tish": 6270,
      "grab": 6271,
      "door": 6272,
      "12GB": 6273,
      "signals": 6274,
      "agreement": 6275,
      "FF": 6276,
      "Kern": 6277,
      "O9": 6278,
      "Sust": 6279,
      "Town": 6280,
      "k2": 6281,
      "lam": 6282,
      "qo": 6283,
      "rZ": 6284,
      "sil": 6285,
      "slight": 6286,
      "vin": 6287,
      "roo": 6288,
      "shown": 6289,
      "regions": 6290,
      "targets": 6291,
      "subscriber": 6292,
      "gateways": 6293,
      "Everything": 6294,
      "GenAI": 6295,
      "Authority": 6296,
      "Tusker": 6297,
      "Bak": 6298,
      "cks": 6299,
      "qY": 6300,
      "vv": 6301,
      "ery": 6302,
      "ophis": 6303,
      "trick": 6304,
      "izable": 6305,
      "disrup": 6306,
      "guess": 6307,
      "benchmarks": 6308,
      "alongside": 6309,
      "returns": 6310,
      "fixed": 6311,
      "restaur": 6312,
      "Zielgruppe": 6313,
      "ophistic": 6314,
      "5V": 6315,
      "Cryp": 6316,
      "QZ": 6317,
      "fits": 6318,
      "construc": 6319,
      "Trail": 6320,
      "awards": 6321,
      "passes": 6322,
      "hosting": 6323,
      "soundcloud": 6324,
      "Below": 6325,
      "accident": 6326,
      "kenyan": 6327,
      "Cn": 6328,
      "F8": 6329,
      "Look": 6330,
      "Oh": 6331,
      "Sol": 6332,
      "i7": 6333,
      "wV": 6334,
      "wW": 6335,
      "isse": 6336,
      "interests": 6337,
      "decades": 6338,
      "realize": 6339,
      "stoppable": 6340,
      "05": 6341,
      "91": 6342,
      ":)": 6343,
      "EX": 6344,
      "JW": 6345,
      "Zj": 6346,
      "dn": 6347,
      "involuntary": 6348,
      "Economic": 6349,
      "Communication": 6350,
      "Introduc": 6351,
      "Rosberg": 6352,
      ")!": 6353,
      "9l": 6354,
      "MY": 6355,
      "w4": 6356,
      "leaving": 6357,
      "headless": 6358,
      "Equip": 6359,
      "alike": 6360,
      "Certific": 6361,
      "3X": 6362,
      ";;": 6363,
      "Event": 6364,
      "Iq": 6365,
      "Ml": 6366,
      "eb": 6367,
      "eve": 6368,
      "iques": 6369,
      "near": 6370,
      "stric": 6371,
      "heart": 6372,
      "Process": 6373,
      "missions": 6374,
      "joint": 6375,
      "USD": 6376,
      "Talent": 6377,
      "'-": 6378,
      "Bul": 6379,
      "FK": 6380,
      "Rr": 6381,
      "hren": 6382,
      "k7": 6383,
      "miti": 6384,
      "pati": 6385,
      "wich": 6386,
      "xS": 6387,
      "asa": 6388,
      "deploy": 6389,
      "geo": 6390,
      "Apps": 6391,
      "Loan": 6392,
      "accurately": 6393,
      "domain": 6394,
      "description": 6395,
      "climate": 6396,
      "96": 6397,
      "FG": 6398,
      "MX": 6399,
      "w8": 6400,
      "ami": 6401,
      "brought": 6402,
      "thern": 6403,
      "grown": 6404,
      "parties": 6405,
      "improvement": 6406,
      "prepare": 6407,
      "closely": 6408,
      "Morocco": 6409,
      "Centre": 6410,
      "Nx": 6411,
      "UT": 6412,
      "W3": 6413,
      "paper": 6414,
      "alloc": 6415,
      "artificial": 6416,
      "began": 6417,
      "ticket": 6418,
      "minute": 6419,
      "visuals": 6420,
      "Reddit": 6421,
      "CBK": 6422,
      "objectives": 6423,
      "Egypt": 6424,
      "Fq": 6425,
      "JI": 6426,
      "Uk": 6427,
      "hor": 6428,
      "cores": 6429,
      "Ang": 6430,
      "interface": 6431,
      "Moz": 6432,
      "parent": 6433,
      "Benefits": 6434,
      "0G": 6435,
      "A4": 6436,
      "Fj": 6437,
      "Tm": 6438,
      "ZV": 6439,
      "b9": 6440,
      "lol": 6441,
      "nie": 6442,
      "soll": 6443,
      "itmo": 6444,
      "counting": 6445,
      "tood": 6446,
      "IFC": 6447,
      "names": 6448,
      "consistently": 6449,
      "Otherwise": 6450,
      "understood": 6451,
      "nehmen": 6452,
      "2D": 6453,
      "7V": 6454,
      "Dom": 6455,
      "ln": 6456,
      "offline": 6457,
      "background": 6458,
      "park": 6459,
      "aways": 6460,
      "optimized": 6461,
      "LTD": 6462,
      "Currently": 6463,
      "5km": 6464,
      "?-": 6465,
      "Dash": 6466,
      "F2": 6467,
      "H9": 6468,
      "Kunden": 6469,
      "Mx": 6470,
      "Tel": 6471,
      "YA": 6472,
      "f8": 6473,
      "festival": 6474,
      "rid": 6475,
      "alian": 6476,
      "editing": 6477,
      "aber": 6478,
      "throughs": 6479,
      "participate": 6480,
      "tells": 6481,
      "goritmo": 6482,
      "pieces": 6483,
      "appeal": 6484,
      "4m": 6485,
      "65": 6486,
      "Cort": 6487,
      "Sal": 6488,
      "Uc": 6489,
      "VAT": 6490,
      "db": 6491,
      "dollar": 6492,
      "f9": 6493,
      "iZ": 6494,
      "pandemic": 6495,
      "sort": 6496,
      "chatbots": 6497,
      "population": 6498,
      "V8": 6499,
      "Wm": 6500,
      "jx": 6501,
      "pH": 6502,
      "unstoppable": 6503,
      "trail": 6504,
      "deb": 6505,
      "proud": 6506,
      "despite": 6507,
      "craw": 6508,
      "Club": 6509,
      "Amplify": 6510,
      "widely": 6511,
      "03": 6512,
      "6k": 6513,
      "KY": 6514,
      "M5": 6515,
      "XC": 6516,
      "file": 6517,
      "sem": 6518,
      "tili": 6519,
      "lean": 6520,
      "Them": 6521,
      "finally": 6522,
      "thoughts": 6523,
      "implementation": 6524,
      "episode": 6525,
      "Sustain": 6526,
      "0H": 6527,
      "FE": 6528,
      "Ref": 6529,
      "Uh": 6530,
      "Vu": 6531,
      "cc": 6532,
      "green": 6533,
      "i4": 6534,
      "oJ": 6535,
      "Action": 6536,
      "modeling": 6537,
      "looked": 6538,
      "appropri": 6539,
      "meeting": 6540,
      "Successful": 6541,
      "official": 6542,
      "2m": 6543,
      "RY": 6544,
      "keeps": 6545,
      "aves": 6546,
      "wasn": 6547,
      "limits": 6548,
      "Videos": 6549,
      "correctly": 6550,
      "inclusive": 6551,
      "incredibly": 6552,
      "perspective": 6553,
      "2C": 6554,
      "7Q": 6555,
      "7v": 6556,
      "Dc": 6557,
      "RK": 6558,
      "Score": 6559,
      "Tz": 6560,
      "Vv": 6561,
      "Xn": 6562,
      "dg": 6563,
      "gins": 6564,
      "pq": 6565,
      "beat": 6566,
      "sole": 6567,
      "credi": 6568,
      "attform": 6569,
      "query": 6570,
      "defined": 6571,
      "statements": 6572,
      "Saturday": 6573,
      "';": 6574,
      "130": 6575,
      "5k": 6576,
      "5n": 6577,
      "9S": 6578,
      "Hash": 6579,
      "Ris": 6580,
      "WP": 6581,
      "Xd": 6582,
      "Xm": 6583,
      "Zh": 6584,
      "hm": 6585,
      "repe": 6586,
      "shilling": 6587,
      "shape": 6588,
      "Interest": 6589,
      "potentially": 6590,
      "partnered": 6591,
      "distinc": 6592,
      "British": 6593,
      "Senior": 6594,
      "9j": 6595,
      "9n": 6596,
      "Cq": 6597,
      "ST": 6598,
      "Vf": 6599,
      "WQ": 6600,
      "Zanz": 6601,
      "b2": 6602,
      "j2": 6603,
      "ingo": 6604,
      "usu": 6605,
      "elim": 6606,
      "Conversion": 6607,
      "einem": 6608,
      "equipped": 6609,
      "Communications": 6610,
      "Zanzibar": 6611,
      "F3": 6612,
      "Fx": 6613,
      "TO": 6614,
      "ZY": 6615,
      "Zl": 6616,
      "k5": 6617,
      "pin": 6618,
      "sS": 6619,
      "wq": 6620,
      "proactive": 6621,
      "oneti": 6622,
      "Plattform": 6623,
      "username": 6624,
      "player": 6625,
      "filter": 6626,
      "passport": 6627,
      "feelings": 6628,
      "Higher": 6629,
      "stellen": 6630,
      "Ei": 6631,
      "Fs": 6632,
      "M2": 6633,
      "MK": 6634,
      "Rx": 6635,
      "eel": 6636,
      "evalu": 6637,
      "fan": 6638,
      "kwa": 6639,
      "lig": 6640,
      "oj": 6641,
      "random": 6642,
      "instruc": 6643,
      "thy": 6644,
      "onto": 6645,
      "audit": 6646,
      "chances": 6647,
      "currencies": 6648,
      "ished": 6649,
      "amounts": 6650,
      "convenient": 6651,
      "Jambo": 6652,
      "Crypto": 6653,
      "Lc": 6654,
      "Late": 6655,
      "Xc": 6656,
      "Ym": 6657,
      "kB": 6658,
      "nits": 6659,
      "sP": 6660,
      "w0": 6661,
      "agric": 6662,
      "emale": 6663,
      "panel": 6664,
      "shaping": 6665,
      "Cortex": 6666,
      "Japan": 6667,
      "Kv": 6668,
      "KRA": 6669,
      "LA": 6670,
      "N8": 6671,
      "Wv": 6672,
      "bx": 6673,
      "p8": 6674,
      "tons": 6675,
      "ui": 6676,
      "dian": 6677,
      "Stan": 6678,
      "1080": 6679,
      "curated": 6680,
      "realized": 6681,
      "Major": 6682,
      "documents": 6683,
      "conduct": 6684,
      "rapidly": 6685,
      "7q": 6686,
      "Gc": 6687,
      "Isu": 6688,
      "MV": 6689,
      "Ng": 6690,
      "kC": 6691,
      "nv": 6692,
      "o4": 6693,
      "tip": 6694,
      "dict": 6695,
      "Kt": 6696,
      "Wireless": 6697,
      "bH": 6698,
      "meas": 6699,
      "reset": 6700,
      "brary": 6701,
      "rick": 6702,
      "although": 6703,
      "cuts": 6704,
      "Continent": 6705,
      "princi": 6706,
      "respectively": 6707,
      "7w": 6708,
      "Ey": 6709,
      "R8": 6710,
      "Xg": 6711,
      "ZX": 6712,
      "jed": 6713,
      "qn": 6714,
      "served": 6715,
      "assis": 6716,
      "successfully": 6717,
      "hospital": 6718,
      "tactic": 6719,
      "fortunately": 6720,
      "compatible": 6721,
      "-!": 6722,
      "0y": 6723,
      "5j": 6724,
      "Nq": 6725,
      "SH": 6726,
      "VU": 6727,
      "rA": 6728,
      "u4": 6729,
      "bei": 6730,
      "immers": 6731,
      "teen": 6732,
      "trials": 6733,
      "Prove": 6734,
      "generative": 6735,
      "costly": 6736,
      "benefic": 6737,
      "centric": 6738,
      "feeding": 6739,
      "Tracking": 6740,
      "Effort": 6741,
      "reduced": 6742,
      "Includes": 6743,
      "Isuzu": 6744,
      "CD": 6745,
      "Hand": 6746,
      "V6": 6747,
      "ZG": 6748,
      "dollars": 6749,
      "gp": 6750,
      "pun": 6751,
      "tt": 6752,
      "erous": 6753,
      "ene": 6754,
      "algoritmo": 6755,
      "uled": 6756,
      "2014": 6757,
      "cedes": 6758,
      "uku": 6759,
      "breakdowns": 6760,
      "Approach": 6761,
      "('": 6762,
      "5b": 6763,
      "Dimens": 6764,
      "F7": 6765,
      "KQ": 6766,
      "M3": 6767,
      "Yc": 6768,
      "fear": 6769,
      "hin": 6770,
      "iop": 6771,
      "kG": 6772,
      "attribut": 6773,
      "ading": 6774,
      "ados": 6775,
      "commo": 6776,
      "illed": 6777,
      "secret": 6778,
      "designer": 6779,
      "Import": 6780,
      "stitu": 6781,
      "thrive": 6782,
      "Mercedes": 6783,
      "Credit": 6784,
      "2J": 6785,
      "Bes": 6786,
      "Cla": 6787,
      "Mf": 6788,
      "Wc": 6789,
      "Wg": 6790,
      "nach": 6791,
      "oil": 6792,
      "independ": 6793,
      "idays": 6794,
      "sobre": 6795,
      "dial": 6796,
      "drives": 6797,
      "processors": 6798,
      "Without": 6799,
      "dashboards": 6800,
      "confidence": 6801,
      "middle": 6802,
      "celebrate": 6803,
      "accelerate": 6804,
      "Corpor": 6805,
      ")?": 6806,
      "6I": 6807,
      "King": 6808,
      "Ww": 6809,
      "YT": 6810,
      "ez": 6811,
      "kS": 6812,
      "yr": 6813,
      "represents": 6814,
      "ultimate": 6815,
      "resol": 6816,
      "tically": 6817,
      "ika": 6818,
      "direction": 6819,
      "fundament": 6820,
      "rankings": 6821,
      "Equipped": 6822,
      "0I": 6823,
      "CX": 6824,
      "D8": 6825,
      "Dem": 6826,
      "Ecommerce": 6827,
      "N1": 6828,
      "Y7": 6829,
      "eh": 6830,
      "jH": 6831,
      "attem": 6832,
      "told": 6833,
      "iced": 6834,
      "idents": 6835,
      "trou": 6836,
      "computer": 6837,
      "void": 6838,
      "Place": 6839,
      "Loss": 6840,
      "placed": 6841,
      "external": 6842,
      "5r": 6843,
      "Facing": 6844,
      "G8": 6845,
      "Gor": 6846,
      "Happ": 6847,
      "Jm": 6848,
      "fc": 6849,
      "ecurity": 6850,
      "einf": 6851,
      "lasting": 6852,
      "named": 6853,
      "warmer": 6854,
      "CLV": 6855,
      "Increase": 6856,
      "Ethiop": 6857,
      ",:": 6858,
      "4l": 6859,
      "4r": 6860,
      "6H": 6861,
      "JM": 6862,
      "KX": 6863,
      "Vb": 6864,
      "jI": 6865,
      "y9": 6866,
      "editor": 6867,
      "00am": 6868,
      "notes": 6869,
      "assign": 6870,
      "Imp": 6871,
      "buyers": 6872,
      "Wallstreet": 6873,
      "govern": 6874,
      "appealing": 6875,
      "1st": 6876,
      "2d": 6877,
      "Eg": 6878,
      "Ol": 6879,
      "Qm": 6880,
      "R9": 6881,
      "ZA": 6882,
      "Zr": 6883,
      "cw": 6884,
      "js": 6885,
      "jy": 6886,
      "sO": 6887,
      "schools": 6888,
      "isten": 6889,
      "beauti": 6890,
      "customize": 6891,
      "enden": 6892,
      "Chip": 6893,
      "Ans": 6894,
      "venture": 6895,
      "heard": 6896,
      "chipset": 6897,
      "!;": 6898,
      "Cm": 6899,
      "Literacy": 6900,
      "SO": 6901,
      "Simple": 6902,
      "Uf": 6903,
      "W8": 6904,
      "cise": 6905,
      "gone": 6906,
      "killing": 6907,
      "qU": 6908,
      "xf": 6909,
      "ycle": 6910,
      "chwarmer": 6911,
      "ilton": 6912,
      "unser": 6913,
      "claims": 6914,
      "Saf": 6915,
      "listing": 6916,
      "chants": 6917,
      "PayPal": 6918,
      "Categories": 6919,
      "powers": 6920,
      "chwarmerz": 6921,
      "G9": 6922,
      "LI": 6923,
      "W6": 6924,
      "bles": 6925,
      "rT": 6926,
      "wish": 6927,
      "ady": 6928,
      "Threats": 6929,
      "ibilities": 6930,
      "128GB": 6931,
      "profiles": 6932,
      "Publish": 6933,
      "completed": 6934,
      "normal": 6935,
      "Shows": 6936,
      "Smith": 6937,
      "Wanj": 6938,
      "cancellations": 6939,
      "Ash": 6940,
      "BK": 6941,
      "Ein": 6942,
      "Fu": 6943,
      "M9": 6944,
      "Sony": 6945,
      "Vn": 6946,
      "WO": 6947,
      "bI": 6948,
      "jc": 6949,
      "sH": 6950,
      "sK": 6951,
      "v8": 6952,
      "yx": 6953,
      "remove": 6954,
      "frustr": 6955,
      "controll": 6956,
      "Consult": 6957,
      "enger": 6958,
      "surveys": 6959,
      "positions": 6960,
      "Offer": 6961,
      "closer": 6962,
      "turned": 6963,
      "Amazing": 6964,
      "notifications": 6965,
      "Bold": 6966,
      "Chair": 6967,
      "Da": 6968,
      "Kl": 6969,
      "Kit": 6970,
      "RN": 6971,
      "VH": 6972,
      "WI": 6973,
      "hour": 6974,
      "mens": 6975,
      "uq": 6976,
      "w7": 6977,
      "wd": 6978,
      "whatever": 6979,
      "iments": 6980,
      "boret": 6981,
      "Arboret": 6982,
      "Intercom": 6983,
      "criter": 6984,
      "consum": 6985,
      "weekend": 6986,
      "carousel": 6987,
      "parents": 6988,
      "savings": 6989,
      "Full": 6990,
      "waste": 6991,
      "honest": 6992,
      "concentration": 6993,
      "Arboretum": 6994,
      "6G": 6995,
      "9a": 6996,
      "Gap": 6997,
      "Hum": 6998,
      "P3": 6999,
      "Sl": 7000,
      "VID": 7001,
      "Ws": 7002,
      "Y3": 7003,
      "cX": 7004,
      "gross": 7005,
      "nf": 7006,
      "r1": 7007,
      "vend": 7008,
      "irates": 7009,
      "torm": 7010,
      "boot": 7011,
      "votre": 7012,
      "einer": 7013,
      "featuring": 7014,
      "Hamilton": 7015,
      "McLaren": 7016,
      "0s": 7017,
      "FL": 7018,
      "Tri": 7019,
      "V2": 7020,
      "Wq": 7021,
      "YH": 7022,
      "nZ": 7023,
      "pG": 7024,
      "oni": 7025,
      "chair": 7026,
      "verification": 7027,
      "datab": 7028,
      "searches": 7029,
      "decade": 7030,
      "Prac": 7031,
      "purchasing": 7032,
      "meetups": 7033,
      "HubSpot": 7034,
      "studies": 7035,
      "RevOps": 7036,
      "Bridging": 7037,
      "2X": 7038,
      "5f": 7039,
      "Bill": 7040,
      "Ek": 7041,
      "Est": 7042,
      "Easter": 7043,
      "Land": 7044,
      "Pk": 7045,
      "YZ": 7046,
      "ien": 7047,
      "jK": 7048,
      "jud": 7049,
      "pv": 7050,
      "radio": 7051,
      "uf": 7052,
      "yg": 7053,
      "invaluable": 7054,
      "roles": 7055,
      "tricks": 7056,
      "apart": 7057,
      "ifies": 7058,
      "Getting": 7059,
      "TechTrends": 7060,
      "programme": 7061,
      "flips": 7062,
      "8l": 7063,
      "Bs": 7064,
      "N7": 7065,
      "VS": 7066,
      "W2": 7067,
      "WA": 7068,
      "ZD": 7069,
      "dm": 7070,
      "qV": 7071,
      "tends": 7072,
      "rew": 7073,
      "Revolution": 7074,
      "interview": 7075,
      "Secret": 7076,
      "personalization": 7077,
      "raising": 7078,
      "PLC": 7079,
      "globe": 7080,
      "Breakthrough": 7081,
      "0O": 7082,
      "8n": 7083,
      "EL": 7084,
      "KD": 7085,
      "MZ": 7086,
      "Tg": 7087,
      "bX": 7088,
      "pays": 7089,
      "rv": 7090,
      "enture": 7091,
      "choosing": 7092,
      "rival": 7093,
      "mother": 7094,
      "umu": 7095,
      "spam": 7096,
      "Trust": 7097,
      "Forecast": 7098,
      "organized": 7099,
      "Desktop": 7100,
      "Times": 7101,
      "Valley": 7102,
      "trading": 7103,
      "installed": 7104,
      "Tomorrow": 7105,
      "Euch": 7106,
      "Low": 7107,
      "TH": 7108,
      "UY": 7109,
      "VY": 7110,
      "Zt": 7111,
      "remin": 7112,
      "beit": 7113,
      "traction": 7114,
      "Comple": 7115,
      "osten": 7116,
      "Southern": 7117,
      "aligns": 7118,
      "Music": 7119,
      "2x": 7120,
      "Case": 7121,
      "GE": 7122,
      "Gold": 7123,
      "Scre": 7124,
      "V1": 7125,
      "dl": 7126,
      "e9": 7127,
      "mp": 7128,
      "q4": 7129,
      "qr": 7130,
      "sophistic": 7131,
      "w3": 7132,
      "wH": 7133,
      "wenn": 7134,
      "stress": 7135,
      "606": 7136,
      "Creating": 7137,
      "Operating": 7138,
      "Impact": 7139,
      "5K": 7140,
      "6v": 7141,
      "7J": 7142,
      "Cp": 7143,
      "FP": 7144,
      "Got": 7145,
      "QY": 7146,
      "R5": 7147,
      "bz": 7148,
      "hire": 7149,
      "k1": 7150,
      "lc": 7151,
      "thers": 7152,
      "notic": 7153,
      "delight": 7154,
      "stands": 7155,
      "icken": 7156,
      "knowing": 7157,
      "classic": 7158,
      "0x": 7159,
      "5q": 7160,
      "7P": 7161,
      "Ee": 7162,
      "Fold": 7163,
      "HI": 7164,
      "IOS": 7165,
      "Qi": 7166,
      "Wed": 7167,
      "aj": 7168,
      "d9": 7169,
      "hom": 7170,
      "hack": 7171,
      "nI": 7172,
      "o5": 7173,
      "angle": 7174,
      "tore": 7175,
      "usual": 7176,
      "unparalle": 7177,
      "branded": 7178,
      "serving": 7179,
      "2002": 7180,
      "2008": 7181,
      "sociaux": 7182,
      "entirely": 7183,
      "CPC": 7184,
      "broader": 7185,
      "Ivory": 7186,
      "Piggy": 7187,
      "scratch": 7188,
      "complicated": 7189,
      "unparalleled": 7190,
      "2r": 7191,
      "Based": 7192,
      "Eh": 7193,
      "FU": 7194,
      "GL": 7195,
      "Kn": 7196,
      "Kam": 7197,
      "Rh": 7198,
      "Sing": 7199,
      "Sem": 7200,
      "Youn": 7201,
      "Zv": 7202,
      "cast": 7203,
      "gv": 7204,
      "mes": 7205,
      "rof": 7206,
      "arely": 7207,
      "proven": 7208,
      "finances": 7209,
      "extend": 7210,
      "oblig": 7211,
      "released": 7212,
      "character": 7213,
      "invested": 7214,
      "draft": 7215,
      "Topics": 7216,
      "speeds": 7217,
      "appointed": 7218,
      "Algorithmus": 7219,
      "57": 7220,
      "E4": 7221,
      "NK": 7222,
      "Pages": 7223,
      "RD": 7224,
      "Slack": 7225,
      "Zq": 7226,
      "ae": 7227,
      "erfa": 7228,
      "ena": 7229,
      "outcomes": 7230,
      "firms": 7231,
      "bersecurity": 7232,
      "integrating": 7233,
      "Starlink": 7234,
      "streaming": 7235,
      "recovery": 7236,
      "discovered": 7237,
      "impressions": 7238,
      "Targeting": 7239,
      "walkthroughs": 7240,
      "auty": 7241,
      "3I": 7242,
      "3M": 7243,
      "Cape": 7244,
      "Nw": 7245,
      "Vest": 7246,
      "Wf": 7247,
      "gave": 7248,
      "motor": 7249,
      "ulner": 7250,
      "plug": 7251,
      "feels": 7252,
      "virtually": 7253,
      "Members": 7254,
      "Bolster": 7255,
      "Effortlessly": 7256,
      "FV": 7257,
      "Jd": 7258,
      "PEA": 7259,
      "Ud": 7260,
      "W7": 7261,
      "Zd": 7262,
      "pill": 7263,
      "zens": 7264,
      "reward": 7265,
      "outh": 7266,
      "itating": 7267,
      "asha": 7268,
      "lying": 7269,
      "mejor": 7270,
      "subs": 7271,
      "Acqu": 7272,
      "differenti": 7273,
      "reached": 7274,
      "sheets": 7275,
      "photography": 7276,
      "pivo": 7277,
      "acquiring": 7278,
      "milestone": 7279,
      "Americ": 7280,
      "Effective": 7281,
      "rofinance": 7282,
      "2A": 7283,
      "IA": 7284,
      "UV": 7285,
      "VX": 7286,
      "fight": 7287,
      "k8": 7288,
      "rq": 7289,
      "v1": 7290,
      "iny": 7291,
      "proposition": 7292,
      "apple": 7293,
      "utter": 7294,
      "10km": 7295,
      "Fintech": 7296,
      "calling": 7297,
      "Boingo": 7298,
      "activate": 7299,
      "Chatbot": 7300,
      "Workforce": 7301,
      "Campaigns": 7302,
      "affected": 7303,
      "XIX": 7304,
      "Christ": 7305,
      "assistive": 7306,
      "PEACE": 7307,
      "&;": 7308,
      "7S": 7309,
      "Gaps": 7310,
      "Jr": 7311,
      "Wn": 7312,
      "coup": 7313,
      "jX": 7314,
      "m5": 7315,
      "oC": 7316,
      "etration": 7317,
      "def": 7318,
      "shouldn": 7319,
      "operators": 7320,
      "Emirates": 7321,
      "cheap": 7322,
      "Germany": 7323,
      "inches": 7324,
      "onsored": 7325,
      "historical": 7326,
      "slightly": 7327,
      "4q": 7328,
      "7r": 7329,
      ";-": 7330,
      "Aq": 7331,
      "I3": 7332,
      "Iu": 7333,
      "Ub": 7334,
      "Zz": 7335,
      "cp": 7336,
      "iw": 7337,
      "rad": 7338,
      "consul": 7339,
      "manner": 7340,
      "Distill": 7341,
      "caption": 7342,
      "Mean": 7343,
      "happened": 7344,
      "preferred": 7345,
      "Mwan": 7346,
      "titles": 7347,
      "fficient": 7348,
      "curious": 7349,
      "attractive": 7350,
      "PiggyVest": 7351,
      "Young": 7352,
      ".:": 7353,
      "Eb": 7354,
      "Eld": 7355,
      "MG": 7356,
      "Nr": 7357,
      "O1": 7358,
      "SC": 7359,
      "VL": 7360,
      "jQ": 7361,
      "overs": 7362,
      "sL": 7363,
      "tural": 7364,
      "zS": 7365,
      "sten": 7366,
      "whol": 7367,
      "conserv": 7368,
      "quanti": 7369,
      "compass": 7370,
      "relatively": 7371,
      "prompt": 7372,
      "Austr": 7373,
      "1100": 7374,
      "Retri": 7375,
      "innovations": 7376,
      "regulations": 7377,
      "ACH": 7378,
      "Seeking": 7379,
      "nnen": 7380,
      "underserved": 7381,
      "Namib": 7382,
      "Bonus": 7383,
      "Circuit": 7384,
      "consumption": 7385,
      "5R": 7386,
      "DI": 7387,
      "F0": 7388,
      "Fc": 7389,
      "Gn": 7390,
      "O3": 7391,
      "Vr": 7392,
      "Zx": 7393,
      "aire": 7394,
      "greg": 7395,
      "gold": 7396,
      "pet": 7397,
      "pitch": 7398,
      "qs": 7399,
      "overview": 7400,
      "techniques": 7401,
      "realistic": 7402,
      "athlete": 7403,
      "linked": 7404,
      "hyper": 7405,
      "errors": 7406,
      "straightforward": 7407,
      "morning": 7408,
      "(&": 7409,
      "5I": 7410,
      "Ferr": 7411,
      "Ju": 7412,
      "Nv": 7413,
      "RZ": 7414,
      "Rog": 7415,
      "SL": 7416,
      "TL": 7417,
      "Utili": 7418,
      "Yn": 7419,
      "eX": 7420,
      "mac": 7421,
      "pas": 7422,
      "yf": 7423,
      "ilarly": 7424,
      "adop": 7425,
      "grows": 7426,
      "cycl": 7427,
      "consideration": 7428,
      "Views": 7429,
      "figur": 7430,
      "Surpasses": 7431,
      "strugg": 7432,
      "Retrieve": 7433,
      "Ferrari": 7434,
      "4x": 7435,
      "Average": 7436,
      "Hm": 7437,
      "NC": 7438,
      "R0": 7439,
      "R1": 7440,
      "VW": 7441,
      "j1": 7442,
      "xO": 7443,
      "White": 7444,
      "psych": 7445,
      "Expose": 7446,
      "analysts": 7447,
      "capable": 7448,
      "operation": 7449,
      "Buffer": 7450,
      "Featured": 7451,
      "Payouts": 7452,
      "Toolkit": 7453,
      "tweet": 7454,
      "Championship": 7455,
      "Legal": 7456,
      "Transformative": 7457,
      "97": 7458,
      "HO": 7459,
      "Hb": 7460,
      "Long": 7461,
      "YJ": 7462,
      "YU": 7463,
      "d1": 7464,
      "ej": 7465,
      "evaluate": 7466,
      "r8": 7467,
      "vu": 7468,
      "adopt": 7469,
      "pled": 7470,
      "heads": 7471,
      "signing": 7472,
      "fuel": 7473,
      "copywriting": 7474,
      "combination": 7475,
      "fairs": 7476,
      "objective": 7477,
      "damage": 7478,
      "migration": 7479,
      ";)": 7480,
      "D9": 7481,
      "EI": 7482,
      "JK": 7483,
      "M7": 7484,
      "RW": 7485,
      "Uy": 7486,
      "Z1": 7487,
      "fX": 7488,
      "nL": 7489,
      "rain": 7490,
      "yb": 7491,
      "onds": 7492,
      "itu": 7493,
      "China": 7494,
      "Trains": 7495,
      "captions": 7496,
      "turning": 7497,
      "enna": 7498,
      "distance": 7499,
      "catalog": 7500,
      "Baku": 7501,
      "Wednes": 7502,
      "3L": 7503,
      "3m": 7504,
      "Gb": 7505,
      "V4": 7506,
      "Z9": 7507,
      "ZC": 7508,
      "cR": 7509,
      "cable": 7510,
      "jump": 7511,
      "qi": 7512,
      "qw": 7513,
      "riers": 7514,
      "Chin": 7515,
      "counties": 7516,
      "transl": 7517,
      "letting": 7518,
      "werden": 7519,
      "healthy": 7520,
      "Shopping": 7521,
      "freemium": 7522,
      "opening": 7523,
      "environmental": 7524,
      "revealing": 7525,
      "Chrome": 7526,
      "Enterprise": 7527,
      "Unternehmen": 7528,
      "Gp": 7529,
      "Kd": 7530,
      "NJ": 7531,
      "Ta": 7532,
      "WC": 7533,
      "Xe": 7534,
      "g8": 7535,
      "gender": 7536,
      "m6": 7537,
      "wQ": 7538,
      "xz": 7539,
      "thr": 7540,
      "logo": 7541,
      "productive": 7542,
      "developer": 7543,
      "collecting": 7544,
      "publicaciones": 7545,
      "transformative": 7546,
      "invoicing": 7547,
      "Williams": 7548,
      "shillings": 7549,
      "))": 7550,
      "Eo": 7551,
      "HQ": 7552,
      "N9": 7553,
      "VF": 7554,
      "Vc": 7555,
      "Vw": 7556,
      "Z2": 7557,
      "dv": 7558,
      "m2": 7559,
      "pixels": 7560,
      "xo": 7561,
      "xv": 7562,
      "y4": 7563,
      "ata": 7564,
      "itt": 7565,
      "contracts": 7566,
      "Charter": 7567,
      "Marken": 7568,
      "Project": 7569,
      "consuming": 7570,
      "freel": 7571,
      "Barcl": 7572,
      "!'": 7573,
      "Avoid": 7574,
      "B1": 7575,
      "Fix": 7576,
      "H5": 7577,
      "Ir": 7578,
      "OO": 7579,
      "Sj": 7580,
      "V7": 7581,
      "Vz": 7582,
      "Wil": 7583,
      "kM": 7584,
      "kd": 7585,
      "wanya": 7586,
      "tieno": 7587,
      "trav": 7588,
      "noise": 7589,
      "voices": 7590,
      "SEOs": 7591,
      "handy": 7592,
      "speaking": 7593,
      "scenes": 7594,
      "receiving": 7595,
      "trusted": 7596,
      "lichen": 7597,
      "explains": 7598,
      "Audience": 7599,
      "einfach": 7600,
      "2s": 7601,
      "6q": 7602,
      "Age": 7603,
      "Nick": 7604,
      "RB": 7605,
      "U5": 7606,
      "Vg": 7607,
      "Vh": 7608,
      "W4": 7609,
      "Wes": 7610,
      "cY": 7611,
      "moneti": 7612,
      "t9": 7613,
      "adminis": 7614,
      "searching": 7615,
      "cold": 7616,
      "grades": 7617,
      "claimer": 7618,
      "Pigford": 7619,
      "components": 7620,
      "overwhelming": 7621,
      "04": 7622,
      "6r": 7623,
      "81": 7624,
      "Db": 7625,
      "Sr": 7626,
      "Ue": 7627,
      "ZJ": 7628,
      "bic": 7629,
      "cm": 7630,
      "fx": 7631,
      "iY": 7632,
      "pJ": 7633,
      "xx": 7634,
      "incoming": 7635,
      "repayment": 7636,
      "como": 7637,
      "dium": 7638,
      "Reasons": 7639,
      "merchants": 7640,
      "Subscriptions": 7641,
      "Space": 7642,
      "manufacturing": 7643,
      "grew": 7644,
      "Essential": 7645,
      "3W": 7646,
      "Further": 7647,
      "Ia": 7648,
      "K4": 7649,
      "Og": 7650,
      "Rd": 7651,
      "block": 7652,
      "c5": 7653,
      "iJ": 7654,
      "pT": 7655,
      "qX": 7656,
      "chos": 7657,
      "achwanya": 7658,
      "mostly": 7659,
      "seeking": 7660,
      "networking": 7661,
      "SEZ": 7662,
      "AMOLED": 7663,
      "feeling": 7664,
      "refine": 7665,
      "introduce": 7666,
      "discussion": 7667,
      "Reporting": 7668,
      "Conversations": 7669,
      "fantastic": 7670,
      "Barclays": 7671,
      ",.": 7672,
      "5Y": 7673,
      "5z": 7674,
      "EG": 7675,
      "Emo": 7676,
      "Ii": 7677,
      "ZL": 7678,
      "c8": 7679,
      "ct": 7680,
      "eight": 7681,
      "jw": 7682,
      "nom": 7683,
      "ose": 7684,
      "yQ": 7685,
      "uss": 7686,
      "heim": 7687,
      "everyday": 7688,
      "builder": 7689,
      "investor": 7690,
      "airline": 7691,
      "saved": 7692,
      "reminder": 7693,
      "1M": 7694,
      "400": 7695,
      "7W": 7696,
      "7m": 7697,
      "A9": 7698,
      "Kenn": 7699,
      "Tv": 7700,
      "Two": 7701,
      "YW": 7702,
      "bum": 7703,
      "jh": 7704,
      "n9": 7705,
      "pw": 7706,
      "inven": 7707,
      "atar": 7708,
      "Inves": 7709,
      "interaction": 7710,
      "besten": 7711,
      "technological": 7712,
      "Associ": 7713,
      "famous": 7714,
      "society": 7715,
      "Safety": 7716,
      "3F": 7717,
      "GQ": 7718,
      "Ga": 7719,
      "Ll": 7720,
      "Na": 7721,
      "Num": 7722,
      "VD": 7723,
      "VM": 7724,
      "XW": 7725,
      "dx": 7726,
      "gm": 7727,
      "sers": 7728,
      "xU": 7729,
      "inated": 7730,
      "max": 7731,
      "inside": 7732,
      "signs": 7733,
      "qualified": 7734,
      "ield": 7735,
      "element": 7736,
      "Writer": 7737,
      "reflect": 7738,
      "False": 7739,
      "Announces": 7740,
      "-'": 7741,
      "9e": 7742,
      "Fp": 7743,
      "Hd": 7744,
      "Ib": 7745,
      "J2": 7746,
      "LTE": 7747,
      "Pw": 7748,
      "Rs": 7749,
      "mN": 7750,
      "rJ": 7751,
      "v6": 7752,
      "xw": 7753,
      "onics": 7754,
      "item": 7755,
      "loads": 7756,
      "Influence": 7757,
      "pot": 7758,
      "podium": 7759,
      "dio": 7760,
      "genu": 7761,
      "Checkout": 7762,
      "football": 7763,
      "forums": 7764,
      "Jambojet": 7765,
      "noticed": 7766,
      "4000": 7767,
      "5M": 7768,
      "EY": 7769,
      "Ear": 7770,
      "bc": 7771,
      "iu": 7772,
      "mh": 7773,
      "nT": 7774,
      "pha": 7775,
      "u8": 7776,
      "v3": 7777,
      "elig": 7778,
      "comfor": 7779,
      "ried": 7780,
      "oph": 7781,
      "illustr": 7782,
      "icht": 7783,
      "Making": 7784,
      "Altern": 7785,
      "Alonso": 7786,
      "Emily": 7787,
      "Again": 7788,
      "typical": 7789,
      "Very": 7790,
      "ASC": 7791,
      "India": 7792,
      "appropriate": 7793,
      "Chartered": 7794,
      ".'": 7795,
      "5X": 7796,
      "C4": 7797,
      "V3": 7798,
      "b8": 7799,
      "eing": 7800,
      "ij": 7801,
      "uo": 7802,
      "revenues": 7803,
      "lies": 7804,
      "followed": 7805,
      "playback": 7806,
      "pursu": 7807,
      "holding": 7808,
      "minimal": 7809,
      "suggests": 7810,
      "suggestions": 7811,
      "narr": 7812,
      "7Z": 7813,
      "93": 7814,
      "BN": 7815,
      "Dig": 7816,
      "JN": 7817,
      "MR": 7818,
      "gaps": 7819,
      "iri": 7820,
      "nX": 7821,
      "p1": 7822,
      "qW": 7823,
      "sr": 7824,
      "thes": 7825,
      "uncover": 7826,
      "whose": 7827,
      "locations": 7828,
      "transact": 7829,
      "Recent": 7830,
      "accuracy": 7831,
      "constant": 7832,
      "criteria": 7833,
      "2j": 7834,
      "750": 7835,
      "E6": 7836,
      "Less": 7837,
      "Little": 7838,
      "Qw": 7839,
      "Sus": 7840,
      "Tur": 7841,
      "Z4": 7842,
      "bing": 7843,
      "hc": 7844,
      "hur": 7845,
      "jd": 7846,
      "mf": 7847,
      "mq": 7848,
      "rant": 7849,
      "sounds": 7850,
      "tx": 7851,
      "tur": 7852,
      "tast": 7853,
      "trending": 7854,
      "tune": 7855,
      "vH": 7856,
      "yy": 7857,
      "ying": 7858,
      "recip": 7859,
      "owl": 7860,
      "Those": 7861,
      "ultra": 7862,
      "priced": 7863,
      "cos": 7864,
      "fewer": 7865,
      "Common": 7866,
      "Traffic": 7867,
      "COVID": 7868,
      "boosting": 7869,
      "Verto": 7870,
      "taxes": 7871,
      "Lifetime": 7872,
      "discussions": 7873,
      "frequently": 7874,
      "3Q": 7875,
      "3n": 7876,
      "5i": 7877,
      "74": 7878,
      "Fd": 7879,
      "IU": 7880,
      "Pass": 7881,
      "RJ": 7882,
      "Tl": 7883,
      "hw": 7884,
      "jr": 7885,
      "kD": 7886,
      "xW": 7887,
      "inating": 7888,
      "town": 7889,
      "ente": 7890,
      "verify": 7891,
      "export": 7892,
      "diese": 7893,
      "|><|": 7894,
      "qualify": 7895,
      "complement": 7896,
      "heavily": 7897,
      "calculating": 7898,
      "highlighted": 7899,
      "Glass": 7900,
      "incredible": 7901,
      "Change": 7902,
      "Eldo": 7903,
      ",-": 7904,
      "3N": 7905,
      "6W": 7906,
      "Ao": 7907,
      "IQ": 7908,
      "Mak": 7909,
      "SN": 7910,
      "SQ": 7911,
      "Yb": 7912,
      "Zc": 7913,
      "jT": 7914,
      "mL": 7915,
      "tc": 7916,
      "vos": 7917,
      "anticip": 7918,
      "ered": 7919,
      "vert": 7920,
      "seed": 7921,
      "regurg": 7922,
      "transfers": 7923,
      "effectiveness": 7924,
      "recorded": 7925,
      "Depending": 7926,
      "Temper": 7927,
      "comfortable": 7928,
      "Eldoret": 7929,
      "(;": 7930,
      "5J": 7931,
      "6y": 7932,
      "7R": 7933,
      "E9": 7934,
      "Flip": 7935,
      "Nik": 7936,
      "O8": 7937,
      "Pz": 7938,
      "Vy": 7939,
      "ZO": 7940,
      "kp": 7941,
      "mouth": 7942,
      "oq": 7943,
      "rN": 7944,
      "science": 7945,
      "vulner": 7946,
      "xg": 7947,
      "replace": 7948,
      "subst": 7949,
      "basically": 7950,
      "became": 7951,
      "Joe": 7952,
      "tested": 7953,
      "rising": 7954,
      "Updates": 7955,
      "calculated": 7956,
      "habits": 7957,
      "immediate": 7958,
      "route": 7959,
      "regurgitating": 7960,
      "4Q": 7961,
      "7H": 7962,
      "9b": 7963,
      "Cc": 7964,
      "FN": 7965,
      "Fb": 7966,
      "KA": 7967,
      "KO": 7968,
      "Kf": 7969,
      "Px": 7970,
      "PMax": 7971,
      "S5": 7972,
      "Senna": 7973,
      "Vt": 7974,
      "eY": 7975,
      "i2": 7976,
      "n8": 7977,
      "v2": 7978,
      "tire": 7979,
      "aints": 7980,
      "flation": 7981,
      "Seam": 7982,
      "confirmation": 7983,
      "5s": 7984,
      "Det": 7985,
      "QN": 7986,
      "SJ": 7987,
      "Sha": 7988,
      "WG": 7989,
      "WU": 7990,
      "borrow": 7991,
      "eo": 7992,
      "fire": 7993,
      "hat": 7994,
      "nY": 7995,
      "vG": 7996,
      "xb": 7997,
      "inations": 7998,
      "unter": 7999,
      "unlimited": 8000,
      "configur": 8001,
      "dern": 8002,
      "posted": 8003,
      "CTO": 8004,
      "Point": 8005,
      "ampions": 8006,
      "black": 8007,
      "advantages": 8008,
      "Screen": 8009,
      "Bid": 8010,
      "DR": 8011,
      "HY": 8012,
      "KF": 8013,
      "Luc": 8014,
      "T1": 8015,
      "VQ": 8016,
      "dq": 8017,
      "alt": 8018,
      "ayud": 8019,
      "churned": 8020,
      "quests": 8021,
      "Michel": 8022,
      "achieving": 8023,
      "cheaper": 8024,
      "PopSurvey": 8025,
      "Sanlam": 8026,
      "conference": 8027,
      "Application": 8028,
      "crafting": 8029,
      "chosen": 8030,
      "3g": 8031,
      "A8": 8032,
      "B6": 8033,
      "MH": 8034,
      "fg": 8035,
      "hil": 8036,
      "jM": 8037,
      "jq": 8038,
      "vc": 8039,
      "vast": 8040,
      "ano": 8041,
      "plant": 8042,
      "otherwise": 8043,
      "seconds": 8044,
      "transport": 8045,
      "Monday": 8046,
      "Alpha": 8047,
      "integrates": 8048,
      "kinds": 8049,
      "'!": 8050,
      "B9": 8051,
      "Bd": 8052,
      "Cg": 8053,
      "HS": 8054,
      "Ln": 8055,
      "NU": 8056,
      "S6": 8057,
      "SR": 8058,
      "Tc": 8059,
      "dp": 8060,
      "dro": 8061,
      "jp": 8062,
      "org": 8063,
      "oman": 8064,
      "marily": 8065,
      "emotional": 8066,
      "viral": 8067,
      "staying": 8068,
      "engineering": 8069,
      "aligned": 8070,
      "necessarily": 8071,
      "obstacles": 8072,
      "3V": 8073,
      "5g": 8074,
      "5u": 8075,
      "7i": 8076,
      "83": 8077,
      "Ie": 8078,
      "Lg": 8079,
      "Lm": 8080,
      "Mach": 8081,
      "O0": 8082,
      "OA": 8083,
      "X1": 8084,
      "Zy": 8085,
      "f1": 8086,
      "hence": 8087,
      "k4": 8088,
      "react": 8089,
      "bewer": 8090,
      "Unlike": 8091,
      "upskilling": 8092,
      "Advertise": 8093,
      "remaining": 8094,
      "Investment": 8095,
      "beautiful": 8096,
      "database": 8097,
      "!,": 8098,
      "2g": 8099,
      ";(": 8100,
      "BY": 8101,
      "CV": 8102,
      "Dh": 8103,
      "I7": 8104,
      "Jer": 8105,
      "Mother": 8106,
      "Z3": 8107,
      "ao": 8108,
      "fH": 8109,
      "threat": 8110,
      "upcoming": 8111,
      "Branch": 8112,
      "SEJ": 8113,
      "viol": 8114,
      "Retail": 8115,
      "waiting": 8116,
      "Ultimate": 8117,
      "removable": 8118,
      "Operations": 8119,
      "',": 8120,
      "2M": 8121,
      "5x": 8122,
      "B7": 8123,
      "Cs": 8124,
      "HX": 8125,
      "Hn": 8126,
      "I1": 8127,
      "IE": 8128,
      "Lr": 8129,
      "Md": 8130,
      "N6": 8131,
      "Pack": 8132,
      "U8": 8133,
      "blockchain": 8134,
      "goo": 8135,
      "jY": 8136,
      "tun": 8137,
      "basics": 8138,
      "consci": 8139,
      "faces": 8140,
      "Microfinance": 8141,
      "Sometimes": 8142,
      "evolve": 8143,
      "voluntary": 8144,
      "facilitate": 8145,
      "Inhalte": 8146,
      "assume": 8147,
      "spring": 8148,
      "measuring": 8149,
      "(-": 8150,
      "2O": 8151,
      "9Q": 8152,
      "Bal": 8153,
      "DCI": 8154,
      "Mel": 8155,
      "S9": 8156,
      "SX": 8157,
      "Ux": 8158,
      "i3": 8159,
      "k3": 8160,
      "kU": 8161,
      "lg": 8162,
      "vic": 8163,
      "wp": 8164,
      "train": 8165,
      "visible": 8166,
      "primarily": 8167,
      "simplify": 8168,
      "taining": 8169,
      "hna": 8170,
      "busy": 8171,
      "8e": 8172,
      "9m": 8173,
      "Dv": 8174,
      "E1": 8175,
      "EV": 8176,
      "Green": 8177,
      "HT": 8178,
      "Hu": 8179,
      "Spa": 8180,
      "Vic": 8181,
      "Yr": 8182,
      "Z7": 8183,
      "d8": 8184,
      "iX": 8185,
      "song": 8186,
      "wu": 8187,
      "recon": 8188,
      "accompl": 8189,
      "white": 8190,
      "brains": 8191,
      "delivers": 8192,
      "letin": 8193,
      "respect": 8194,
      "lining": 8195,
      "allowed": 8196,
      "microphone": 8197,
      "assistance": 8198,
      "Netzwerken": 8199,
      "Britain": 8200,
      "Chinese": 8201,
      "Seamless": 8202,
      "(!": 8203,
      "IX": 8204,
      "LM": 8205,
      "Ot": 8206,
      "PJ": 8207,
      "Scam": 8208,
      "Tag": 8209,
      "V0": 8210,
      "ZU": 8211,
      "f6": 8212,
      "fold": 8213,
      "jR": 8214,
      "kA": 8215,
      "kQ": 8216,
      "rier": 8217,
      "friction": 8218,
      "seeks": 8219,
      "Enh": 8220,
      "wah": 8221,
      "Liquid": 8222,
      "joined": 8223,
      "Promo": 8224,
      "bonus": 8225,
      "scoop": 8226,
      "Stanbic": 8227,
      ",,": 8228,
      ".;": 8229,
      "6x": 8230,
      "82": 8231,
      "8b": 8232,
      "Follower": 8233,
      "Mig": 8234,
      "Pv": 8235,
      "Tf": 8236,
      "Va": 8237,
      "mJ": 8238,
      "mM": 8239,
      "pace": 8240,
      "erts": 8241,
      "sein": 8242,
      "club": 8243,
      "churning": 8244,
      "Imagine": 8245,
      "founded": 8246,
      "Book": 8247,
      "exploring": 8248,
      "properly": 8249,
      "5c": 8250,
      "86": 8251,
      "92": 8252,
      "Ci": 8253,
      "KT": 8254,
      "Non": 8255,
      "QW": 8256,
      "bio": 8257,
      "gR": 8258,
      "mad": 8259,
      "pc": 8260,
      "sz": 8261,
      "sst": 8262,
      "tS": 8263,
      "requests": 8264,
      "isi": 8265,
      "older": 8266,
      "upfront": 8267,
      "cred": 8268,
      "doc": 8269,
      "Street": 8270,
      "experiments": 8271,
      "addressing": 8272,
      "personality": 8273,
      "recommended": 8274,
      "ARPA": 8275,
      "talked": 8276,
      "Promote": 8277,
      "situations": 8278,
      "Events": 8279,
      "journalism": 8280,
      "Westlands": 8281,
      "materials": 8282,
      "Western": 8283,
      "2Z": 8284,
      "BX": 8285,
      "Clear": 8286,
      "DB": 8287,
      "E8": 8288,
      "Hoc": 8289,
      "M1": 8290,
      "PK": 8291,
      "X7": 8292,
      "Yw": 8293,
      "lq": 8294,
      "nA": 8295,
      "vertical": 8296,
      "Week": 8297,
      "centre": 8298,
      "consultancy": 8299,
      "Example": 8300,
      "amente": 8301,
      "Telecom": 8302,
      "Kisumu": 8303,
      "shorter": 8304,
      "Mwangi": 8305,
      "Bz": 8306,
      "GN": 8307,
      "Kev": 8308,
      "OD": 8309,
      "Pj": 8310,
      "Randy": 8311,
      "Ts": 8312,
      "Tour": 8313,
      "UH": 8314,
      "YF": 8315,
      "Z8": 8316,
      "ZN": 8317,
      "ction": 8318,
      "gb": 8319,
      "pW": 8320,
      "pal": 8321,
      "v7": 8322,
      "yV": 8323,
      "argu": 8324,
      "Inbox": 8325,
      "erez": 8326,
      "Sector": 8327,
      "watching": 8328,
      "showc": 8329,
      "Guides": 8330,
      "B2C": 8331,
      "Overviews": 8332,
      "authority": 8333,
      "cohorts": 8334,
      "announcement": 8335,
      "roove": 8336,
      "Happy": 8337,
      "3K": 8338,
      "XX": 8339,
      "d2": 8340,
      "f2": 8341,
      "fh": 8342,
      "iI": 8343,
      "kO": 8344,
      "rm": 8345,
      "rx": 8346,
      "wF": 8347,
      "zm": 8348,
      "zv": 8349,
      "intens": 8350,
      "offee": 8351,
      "acci": 8352,
      "rive": 8353,
      "customizable": 8354,
      "ibt": 8355,
      "languages": 8356,
      "property": 8357,
      "eyes": 8358,
      "salary": 8359,
      "Tipps": 8360,
      "contrast": 8361,
      "-:": 8362,
      "5Q": 8363,
      "9Y": 8364,
      "Bc": 8365,
      "Bv": 8366,
      "CM": 8367,
      "UE": 8368,
      "Ui": 8369,
      "Z0": 8370,
      "aid": 8371,
      "dQ": 8372,
      "dt": 8373,
      "gQ": 8374,
      "nW": 8375,
      "tex": 8376,
      "wR": 8377,
      "sufficient": 8378,
      "uni": 8379,
      "idad": 8380,
      "exit": 8381,
      "illi": 8382,
      "posing": 8383,
      "Republic": 8384,
      "interactive": 8385,
      "Marke": 8386,
      "Existing": 8387,
      "solving": 8388,
      "ramient": 8389,
      "Lea": 8390,
      "TEC": 8391,
      "recording": 8392,
      "tourism": 8393,
      "Avail": 8394,
      "teachers": 8395,
      "abandon": 8396,
      "immersive": 8397,
      "'?": 8398,
      ".&": 8399,
      "Bab": 8400,
      "Gm": 8401,
      "I8": 8402,
      "Kop": 8403,
      "Kore": 8404,
      "Smarter": 8405,
      "WD": 8406,
      "Wb": 8407,
      "Yi": 8408,
      "b3": 8409,
      "lp": 8410,
      "nB": 8411,
      "qT": 8412,
      "sport": 8413,
      "wm": 8414,
      "wird": 8415,
      "arf": 8416,
      "elle": 8417,
      "Institu": 8418,
      "Church": 8419,
      "grand": 8420,
      "plement": 8421,
      "Excell": 8422,
      "reader": 8423,
      "Art": 8424,
      "relev": 8425,
      "Focus": 8426,
      "USSD": 8427,
      "moments": 8428,
      "issance": 8429,
      "Register": 8430,
      "Keyword": 8431,
      "KWAL": 8432,
      "department": 8433,
      "born": 8434,
      ":(": 8435,
      "AWS": 8436,
      "Df": 8437,
      "LS": 8438,
      "Lp": 8439,
      "WM": 8440,
      "aq": 8441,
      "xj": 8442,
      "alia": 8443,
      "sta": 8444,
      "itable": 8445,
      "ilk": 8446,
      "aggreg": 8447,
      "proactively": 8448,
      "consec": 8449,
      "citi": 8450,
      "aug": 8451,
      "contest": 8452,
      "Only": 8453,
      "pressure": 8454,
      "argeting": 8455,
      "signal": 8456,
      "holder": 8457,
      "penetration": 8458,
      "Organic": 8459,
      "applying": 8460,
      "3J": 8461,
      "6w": 8462,
      "Bot": 8463,
      "Dp": 8464,
      "E5": 8465,
      "FJ": 8466,
      "Give": 8467,
      "H8": 8468,
      "QX": 8469,
      "Rq": 8470,
      "YC": 8471,
      "YG": 8472,
      "b1": 8473,
      "cd": 8474,
      "hv": 8475,
      "lon": 8476,
      "oa": 8477,
      "ona": 8478,
      "agent": 8479,
      "uncertain": 8480,
      "debit": 8481,
      "anywhere": 8482,
      "dos": 8483,
      "AIO": 8484,
      "trip": 8485,
      "colour": 8486,
      "falls": 8487,
      "wondering": 8488,
      "puedes": 8489,
      "Bulletin": 8490,
      "4h": 8491,
      "Fac": 8492,
      "Ig": 8493,
      "J1": 8494,
      "Learning": 8495,
      "Pul": 8496,
      "Tt": 8497,
      "Uu": 8498,
      "Vd": 8499,
      "Vod": 8500,
      "Yet": 8501,
      "Zf": 8502,
      "Zn": 8503,
      "bab": 8504,
      "i1": 8505,
      "jF": 8506,
      "oR": 8507,
      "u6": 8508,
      "ige": 8509,
      "amu": 8510,
      "tric": 8511,
      "neu": 8512,
      "quel": 8513,
      "ological": 8514,
      "headlines": 8515,
      "189": 8516,
      "certainly": 8517,
      "Farmer": 8518,
      "History": 8519,
      "Knowing": 8520,
      "flix": 8521,
      "sponsor": 8522,
      "Certification": 8523,
      "consulting": 8524,
      "wahili": 8525,
      "4v": 8526,
      "4y": 8527,
      "5y": 8528,
      "E2": 8529,
      "Groove": 8530,
      "I2": 8531,
      "Mali": 8532,
      "VG": 8533,
      "Ys": 8534,
      "cQ": 8535,
      "e8": 8536,
      "iV": 8537,
      "kosten": 8538,
      "nH": 8539,
      "o1": 8540,
      "rX": 8541,
      "tl": 8542,
      "ela": 8543,
      "excep": 8544,
      "Station": 8545,
      "newest": 8546,
      "educational": 8547,
      "tailor": 8548,
      "certifications": 8549,
      "Annual": 8550,
      "ambassad": 8551,
      "scores": 8552,
      "Medien": 8553,
      "consecutive": 8554,
      "4o": 8555,
      "AU": 8556,
      "Ct": 8557,
      "Cat": 8558,
      "DX": 8559,
      "Das": 8560,
      "HL": 8561,
      "Kim": 8562,
      "P8": 8563,
      "YK": 8564,
      "nG": 8565,
      "pip": 8566,
      "zg": 8567,
      "resh": 8568,
      "theme": 8569,
      "ilot": 8570,
      "aya": 8571,
      "bean": 8572,
      "quet": 8573,
      "lie": 8574,
      "Accounting": 8575,
      "performed": 8576,
      "generates": 8577,
      "collected": 8578,
      "Expert": 8579,
      "feeds": 8580,
      "graphs": 8581,
      "Driver": 8582,
      "equi": 8583,
      "referral": 8584,
      "writes": 8585,
      "maternal": 8586,
      "Navigating": 8587,
      "regardless": 8588,
      "Asha": 8589,
      "Consultancy": 8590,
      "Kevin": 8591,
      "2i": 8592,
      "9U": 8593,
      "Hv": 8594,
      "Nat": 8595,
      "Text": 8596,
      "WL": 8597,
      "Zw": 8598,
      "gf": 8599,
      "hd": 8600,
      "j8": 8601,
      "p6": 8602,
      "yL": 8603,
      "zd": 8604,
      "incorpor": 8605,
      "estr": 8606,
      "eller": 8607,
      "Reads": 8608,
      "posten": 8609,
      "inspired": 8610,
      "benchmark": 8611,
      "Introducing": 8612,
      "Gorilla": 8613,
      "Ethiopia": 8614,
      "0A": 8615,
      "0r": 8616,
      "5t": 8617,
      "Bw": 8618,
      "Bay": 8619,
      "C1": 8620,
      "Fm": 8621,
      "IY": 8622,
      "James": 8623,
      "OK": 8624,
      "Por": 8625,
      "QH": 8626,
      "UR": 8627,
      "Wl": 8628,
      "lv": 8629,
      "mv": 8630,
      "nw": 8631,
      "enda": 8632,
      "themes": 8633,
      "Accep": 8634,
      "publicar": 8635,
      "ock": 8636,
      "Booth": 8637,
      "rolled": 8638,
      "activation": 8639,
      "Automation": 8640,
      "Hacked": 8641,
      "0F": 8642,
      "5h": 8643,
      "8m": 8644,
      "Era": 8645,
      "M8": 8646,
      "O2": 8647,
      "Wd": 8648,
      "YP": 8649,
      "Zk": 8650,
      "bU": 8651,
      "cV": 8652,
      "nb": 8653,
      "s4": 8654,
      "ution": 8655,
      "xV": 8656,
      "y1": 8657,
      "enen": 8658,
      "tories": 8659,
      "ecting": 8660,
      "eme": 8661,
      "ailing": 8662,
      "seek": 8663,
      "Jose": 8664,
      "herramient": 8665,
      "Pod": 8666,
      "opened": 8667,
      "failure": 8668,
      "Netflix": 8669,
      "discussed": 8670,
      "responding": 8671,
      "beste": 8672,
      "ruled": 8673,
      "Hocken": 8674,
      ",;": 8675,
      "0w": 8676,
      "2N": 8677,
      "CJ": 8678,
      "Dq": 8679,
      "Greg": 8680,
      "H1": 8681,
      "Hr": 8682,
      "Lu": 8683,
      "MCo": 8684,
      "Pan": 8685,
      "aY": 8686,
      "bT": 8687,
      "bat": 8688,
      "ctu": 8689,
      "eC": 8690,
      "eI": 8691,
      "mw": 8692,
      "mud": 8693,
      "mier": 8694,
      "nl": 8695,
      "pp": 8696,
      "vf": 8697,
      "xe": 8698,
      "repl": 8699,
      "mente": 8700,
      "locks": 8701,
      "visually": 8702,
      "Auto": 8703,
      "organize": 8704,
      "liche": 8705,
      "cioafrica": 8706,
      "Dashboard": 8707,
      "Answers": 8708,
      "Human": 8709,
      "bootstr": 8710,
      "flipside": 8711,
      "Hockenheim": 8712,
      "?&": 8713,
      "C2": 8714,
      "D2": 8715,
      "EE": 8716,
      "G6": 8717,
      "Jet": 8718,
      "K1": 8719,
      "Od": 8720,
      "Wood": 8721,
      "ZR": 8722,
      "ZT": 8723,
      "durch": 8724,
      "kicks": 8725,
      "nV": 8726,
      "nh": 8727,
      "perce": 8728,
      "ffent": 8729,
      "dedication": 8730,
      "adjustments": 8731,
      "employment": 8732,
      "Khan": 8733,
      "sophisticated": 8734,
      "!-": 8735,
      "7g": 8736,
      "9R": 8737,
      "CR": 8738,
      "I0": 8739,
      "S2": 8740,
      "Uv": 8741,
      "ZQ": 8742,
      "cU": 8743,
      "i5": 8744,
      "iers": 8745,
      "sq": 8746,
      "y8": 8747,
      "zl": 8748,
      "tock": 8749,
      "pod": 8750,
      "impacts": 8751,
      "Tek": 8752,
      "GPS": 8753,
      "prepared": 8754,
      "political": 8755,
      "4k": 8756,
      "7p": 8757,
      "710": 8758,
      "XH": 8759,
      "bump": 8760,
      "cili": 8761,
      "fY": 8762,
      "hq": 8763,
      "nx": 8764,
      "rV": 8765,
      "yU": 8766,
      "ometer": 8767,
      "chicken": 8768,
      "igno": 8769,
      "units": 8770,
      "abham": 8771,
      "perception": 8772,
      "ella": 8773,
      "rent": 8774,
      "Brabham": 8775,
      "surface": 8776,
      "conversational": 8777,
      "faced": 8778,
      "approxim": 8779,
      "angazo": 8780,
      "responsibility": 8781,
      "Launched": 8782,
      "filled": 8783,
      "records": 8784,
      "Silicon": 8785,
      "surprise": 8786,
      "surprising": 8787,
      "Snapchat": 8788,
      "Nutzer": 8789,
      "conscious": 8790,
      "2B": 8791,
      "Abu": 8792,
      "Cd": 8793,
      "Ges": 8794,
      "PG": 8795,
      "Pm": 8796,
      "WF": 8797,
      "War": 8798,
      "fU": 8799,
      "gift": 8800,
      "j3": 8801,
      "r6": 8802,
      "scan": 8803,
      "yX": 8804,
      "ione": 8805,
      "apples": 8806,
      "portion": 8807,
      "gebn": 8808,
      "goti": 8809,
      "paired": 8810,
      "distribu": 8811,
      "Enable": 8812,
      "Similarly": 8813,
      "opinions": 8814,
      "Telegram": 8815,
      "AB": 8816,
      "Ej": 8817,
      "Fw": 8818,
      "Ja": 8819,
      "cv": 8820,
      "cure": 8821,
      "dram": 8822,
      "eR": 8823,
      "fS": 8824,
      "s6": 8825,
      "exer": 8826,
      "dialing": 8827,
      "2007": 8828,
      "executive": 8829,
      "Easy": 8830,
      "American": 8831,
      "0X": 8832,
      "3T": 8833,
      "8j": 8834,
      "9Z": 8835,
      "A2": 8836,
      "Block": 8837,
      "Ca": 8838,
      "EP": 8839,
      "K9": 8840,
      "QJ": 8841,
      "Site": 8842,
      "Sens": 8843,
      "Sky": 8844,
      "WN": 8845,
      "bF": 8846,
      "bled": 8847,
      "gk": 8848,
      "m9": 8849,
      "n4": 8850,
      "wl": 8851,
      "zn": 8852,
      "tiers": 8853,
      "isco": 8854,
      "confir": 8855,
      "plain": 8856,
      "scope": 8857,
      "gran": 8858,
      "Conclusion": 8859,
      "vale": 8860,
      "affec": 8861,
      "operates": 8862,
      "collaborate": 8863,
      "attend": 8864,
      "fastest": 8865,
      "implemented": 8866,
      "efully": 8867,
      "worthy": 8868,
      "Competition": 8869,
      "NOW": 8870,
      "glass": 8871,
      "selection": 8872,
      "equipment": 8873,
      "construction": 8874,
      "1080p": 8875,
      "Der": 8876,
      "EH": 8877,
      "Ez": 8878,
      "Ij": 8879,
      "Mart": 8880,
      "Nc": 8881,
      "Nation": 8882,
      "O6": 8883,
      "Pu": 8884,
      "Qatar": 8885,
      "Tp": 8886,
      "Yv": 8887,
      "Zuku": 8888,
      "bA": 8889,
      "eq": 8890,
      "ipe": 8891,
      "uv": 8892,
      "wS": 8893,
      "x9": 8894,
      "input": 8895,
      "tigen": 8896,
      "Thurs": 8897,
      "essentially": 8898,
      "urers": 8899,
      "tenance": 8900,
      "render": 8901,
      "backs": 8902,
      "handling": 8903,
      "SME": 8904,
      "Boom": 8905,
      "elev": 8906,
      "Steps": 8907,
      "memor": 8908,
      "summar": 8909,
      "inspire": 8910,
      "Following": 8911,
      "hashtag": 8912,
      "obstacle": 8913,
      "Children": 8914,
      "vehicles": 8915,
      "Acquisition": 8916,
      "0p": 8917,
      "6X": 8918,
      "8Q": 8919,
      ";.": 8920,
      "B8": 8921,
      "Fern": 8922,
      "G3": 8923,
      "J7": 8924,
      "JR": 8925,
      "Timo": 8926,
      "hs": 8927,
      "kick": 8928,
      "nz": 8929,
      "native": 8930,
      "uce": 8931,
      "y6": 8932,
      "ira": 8933,
      "dealing": 8934,
      "coin": 8935,
      "Ana": 8936,
      "expense": 8937,
      "generator": 8938,
      "couldn": 8939,
      "capability": 8940,
      "Death": 8941,
      "facts": 8942,
      "Agree": 8943,
      "presented": 8944,
      "Artiste": 8945,
      "gapixels": 8946,
      "kenya": 8947,
      "euer": 8948,
      "TECNO": 8949,
      "FarmerAI": 8950,
      "4R": 8951,
      "722": 8952,
      "87": 8953,
      "B3": 8954,
      "BE": 8955,
      "Bj": 8956,
      "CW": 8957,
      "CFO": 8958,
      "Cision": 8959,
      "Dm": 8960,
      "K2": 8961,
      "MN": 8962,
      "Much": 8963,
      "cH": 8964,
      "dS": 8965,
      "fI": 8966,
      "fL": 8967,
      "fb": 8968,
      "nq": 8969,
      "p2": 8970,
      "pM": 8971,
      "r7": 8972,
      "t6": 8973,
      "vF": 8974,
      "van": 8975,
      "cancer": 8976,
      "library": 8977,
      "MediaTek": 8978,
      "promised": 8979,
      "indicates": 8980,
      "formerly": 8981,
      "repeat": 8982,
      "wholistic": 8983,
      "((": 8984,
      "3U": 8985,
      "980": 8986,
      "Dan": 8987,
      "LD": 8988,
      "Oo": 8989,
      "Sab": 8990,
      "Tic": 8991,
      "UF": 8992,
      "ZW": 8993,
      "cg": 8994,
      "cater": 8995,
      "dP": 8996,
      "i9": 8997,
      "tX": 8998,
      "xm": 8999,
      "restric": 9000,
      "etary": 9001,
      "ecycle": 9002,
      "cities": 9003,
      "oundu": 9004,
      "intern": 9005,
      "mistake": 9006,
      "Marketer": 9007,
      "shipping": 9008,
      "boxes": 9009,
      "Diam": 9010,
      "embrace": 9011,
      "Browse": 9012,
      "Krishna": 9013,
      "Churchill": 9014,
      "Timothy": 9015,
      "&'": 9016,
      "0m": 9017,
      "1m": 9018,
      "2nd": 9019,
      "4S": 9020,
      "5N": 9021,
      "CZ": 9022,
      "Cj": 9023,
      "DRC": 9024,
      "EM": 9025,
      "Gt": 9026,
      "Lk": 9027,
      "SF": 9028,
      "T2": 9029,
      "Vx": 9030,
      "Vir": 9031,
      "Wk": 9032,
      "fQ": 9033,
      "female": 9034,
      "kids": 9035,
      "pure": 9036,
      "s1": 9037,
      "uS": 9038,
      "intention": 9039,
      "assum": 9040,
      "ague": 9041,
      "embed": 9042,
      "iele": 9043,
      "ouses": 9044,
      "Always": 9045,
      "Canary": 9046,
      "ultural": 9047,
      "memory": 9048,
      "folks": 9049,
      "schol": 9050,
      "downloading": 9051,
      "Edge": 9052,
      "120Hz": 9053,
      "broken": 9054,
      "Eastern": 9055,
      "4p": 9056,
      "5T": 9057,
      "5Z": 9058,
      "6s": 9059,
      "?'": 9060,
      "Lj": 9061,
      "Rising": 9062,
      "Tes": 9063,
      "Touch": 9064,
      "bil": 9065,
      "cx": 9066,
      "gw": 9067,
      "jus": 9068,
      "mr": 9069,
      "vB": 9070,
      "xZ": 9071,
      "estimate": 9072,
      "stuck": 9073,
      "verified": 9074,
      "scroll": 9075,
      "consisten": 9076,
      "Loading": 9077,
      "Metho": 9078,
      "deduc": 9079,
      "USA": 9080,
      "APIs": 9081,
      "hardware": 9082,
      "torials": 9083,
      "storytelling": 9084,
      "excellence": 9085,
      "layer": 9086,
      "credibility": 9087,
      "(.": 9088,
      "4d": 9089,
      "5d": 9090,
      "738": 9091,
      "DQ": 9092,
      "EW": 9093,
      "FQ": 9094,
      "GU": 9095,
      "JH": 9096,
      "R7": 9097,
      "Running": 9098,
      "Such": 9099,
      "VA": 9100,
      "Wer": 9101,
      "Xu": 9102,
      "bY": 9103,
      "ew": 9104,
      "fP": 9105,
      "fly": 9106,
      "hh": 9107,
      "uy": 9108,
      "woll": 9109,
      "xl": 9110,
      "orm": 9111,
      "modif": 9112,
      "outreach": 9113,
      "compens": 9114,
      "annually": 9115,
      "influential": 9116,
      "TVET": 9117,
      "closing": 9118,
      "Tues": 9119,
      "Regional": 9120,
      "754": 9121,
      "Valencia": 9122,
      "vestream": 9123,
      "843": 9124,
      "Assist": 9125,
      "component": 9126,
      "deposit": 9127,
      "Calculate": 9128,
      "substanti": 9129,
      "Scammers": 9130,
      "038": 9131,
      "7L": 9132,
      "800": 9133,
      ";&": 9134,
      "Lq": 9135,
      "R4": 9136,
      "Xr": 9137,
      "follower": 9138,
      "glich": 9139,
      "iy": 9140,
      "jg": 9141,
      "jt": 9142,
      "v4": 9143,
      "itten": 9144,
      "aden": 9145,
      "idential": 9146,
      "weak": 9147,
      "Wharf": 9148,
      "ogn": 9149,
      "Code": 9150,
      "2006": 9151,
      "demographic": 9152,
      "explained": 9153,
      "tweets": 9154,
      "spreadsheets": 9155,
      "university": 9156,
      "notification": 9157,
      "Hospital": 9158,
      "enthusiasts": 9159,
      "Hashtags": 9160,
      "(,": 9161,
      "1F": 9162,
      "5HU": 9163,
      "700": 9164,
      "9s": 9165,
      "Ax": 9166,
      "Cell": 9167,
      "Ew": 9168,
      "E14": 9169,
      "Jc": 9170,
      "PN": 9171,
      "Sv": 9172,
      "WK": 9173,
      "Ya": 9174,
      "aU": 9175,
      "bh": 9176,
      "cum": 9177,
      "eU": 9178,
      "f5": 9179,
      "fC": 9180,
      "g4": 9181,
      "hib": 9182,
      "ived": 9183,
      "qQ": 9184,
      "theflipside": 9185,
      "econe": 9186,
      "abusiness": 9187,
      "proxim": 9188,
      "verse": 9189,
      "payable": 9190,
      "intended": 9191,
      "Resh": 9192,
      "fluctu": 9193,
      "Seek": 9194,
      "Masterclass": 9195,
      "EABL": 9196,
      "encouraging": 9197,
      "africabusiness": 9198,
      "Electricity": 9199,
      "Calling": 9200,
      "zahl": 9201,
      "shots": 9202,
      "13061": 9203,
      "Losses": 9204,
      "110013061": 9205,
      "eligible": 9206,
      "Woodvale": 9207,
      "98053": 9208,
      "03898053": 9209,
      "econews": 9210,
      "africabusinesscommunities": 9211,
      "0N": 9212,
      "6p": 9213,
      "Cab": 9214,
      "D1": 9215,
      "KG": 9216,
      "OM": 9217,
      "SG": 9218,
      "bp": 9219,
      "dw": 9220,
      "x8": 9221,
      "y2": 9222,
      "ald": 9223,
      "sters": 9224,
      "worst": 9225,
      "span": 9226,
      "helfen": 9227,
      "Extends": 9228,
      "Advant": 9229,
      "Marketers": 9230,
      "importantly": 9231,
      "cuent": 9232,
      "Products": 9233,
      "popularity": 9234,
      "automatic": 9235,
      "Transfer": 9236,
      "width": 9237,
      "animal": 9238,
      "beneficial": 9239,
      "subsidi": 9240,
      "1n": 9241,
      "4I": 9242,
      "BF": 9243,
      "HF": 9244,
      "Hl": 9245,
      "K6": 9246,
      "Np": 9247,
      "QM": 9248,
      "S4": 9249,
      "WR": 9250,
      "Ware": 9251,
      "XZ": 9252,
      "Zp": 9253,
      "aI": 9254,
      "b6": 9255,
      "ea": 9256,
      "kT": 9257,
      "mY": 9258,
      "mg": 9259,
      "rF": 9260,
      "rural": 9261,
      "zs": 9262,
      "andid": 9263,
      "sty": 9264,
      "sun": 9265,
      "trillion": 9266,
      "gee": 9267,
      "Trade": 9268,
      "ploye": 9269,
      "anner": 9270,
      "Loans": 9271,
      "testament": 9272,
      "purchased": 9273,
      "indicate": 9274,
      "splash": 9275,
      "America": 9276,
      "expressed": 9277,
      "trigger": 9278,
      "Silverstone": 9279,
      "mentorship": 9280,
      "!.": 9281,
      "(?": 9282,
      "3y": 9283,
      "713": 9284,
      "Cli": 9285,
      "Dw": 9286,
      "Ik": 9287,
      "K8": 9288,
      "KB": 9289,
      "LH": 9290,
      "Nh": 9291,
      "Rc": 9292,
      "S1": 9293,
      "VB": 9294,
      "mF": 9295,
      "nO": 9296,
      "yt": 9297,
      "eral": 9298,
      "rear": 9299,
      "beauty": 9300,
      "compan": 9301,
      "vention": 9302,
      "lisis": 9303,
      "engagements": 9304,
      "fake": 9305,
      "Employe": 9306,
      "collaborations": 9307,
      "Outage": 9308,
      "Indust": 9309,
      "electricity": 9310,
      "Ryan": 9311,
      "Ideas": 9312,
      "documentation": 9313,
      "organisations": 9314,
      "estimated": 9315,
      "Editor": 9316,
      "Ministry": 9317,
      "principles": 9318,
      "ciliation": 9319,
      "oundup": 9320,
      "-;": 9321,
      "0z": 9322,
      "5U": 9323,
      "Dj": 9324,
      "IG": 9325,
      "Ken": 9326,
      "MQ": 9327,
      "NZ": 9328,
      "PF": 9329,
      "PX": 9330,
      "Pq": 9331,
      "Rp": 9332,
      "Vq": 9333,
      "cooking": 9334,
      "eQ": 9335,
      "fB": 9336,
      "jS": 9337,
      "m8": 9338,
      "nU": 9339,
      "o0": 9340,
      "oi": 9341,
      "pens": 9342,
      "tb": 9343,
      "yv": 9344,
      "orch": 9345,
      "arm": 9346,
      "rote": 9347,
      "iden": 9348,
      "emp": 9349,
      "anytime": 9350,
      "server": 9351,
      "Moving": 9352,
      "guard": 9353,
      "guys": 9354,
      "Aga": 9355,
      "structured": 9356,
      "Overall": 9357,
      "placements": 9358,
      "reduces": 9359,
      "packed": 9360,
      "losses": 9361,
      "destination": 9362,
      "inventory": 9363,
      "Kopa": 9364,
      "Fernando": 9365,
      "&?": 9366,
      "0P": 9367,
      "2c": 9368,
      "2n": 9369,
      "3O": 9370,
      "4c": 9371,
      "4i": 9372,
      "Az": 9373,
      "Dn": 9374,
      "Dhab": 9375,
      "Iw": 9376,
      "J6": 9377,
      "JZ": 9378,
      "Mat": 9379,
      "Pp": 9380,
      "Turn": 9381,
      "Uw": 9382,
      "XY": 9383,
      "bB": 9384,
      "hid": 9385,
      "jO": 9386,
      "vQ": 9387,
      "yw": 9388,
      "recharge": 9389,
      "edom": 9390,
      "ema": 9391,
      "consolid": 9392,
      "imagine": 9393,
      "endo": 9394,
      "contain": 9395,
      "dose": 9396,
      "booking": 9397,
      "interacci": 9398,
      "decline": 9399,
      "Recogn": 9400,
      "headline": 9401,
      "facilities": 9402,
      "skill": 9403,
      "occas": 9404,
      "folg": 9405,
      "sensitive": 9406,
      "perfectly": 9407,
      "writers": 9408,
      "authenticity": 9409,
      "Maina": 9410,
      "phrases": 9411,
      "fundamental": 9412,
      "Diamond": 9413,
      "proximity": 9414,
      "Dhabi": 9415,
      "'.": 9416,
      "2q": 9417,
      "4H": 9418,
      "5H": 9419,
      "5e": 9420,
      "Bowl": 9421,
      "JA": 9422,
      "Jumia": 9423,
      "L0": 9424,
      "NF": 9425,
      "Sure": 9426,
      "Tq": 9427,
      "Wz": 9428,
      "X6": 9429,
      "YD": 9430,
      "bd": 9431,
      "bq": 9432,
      "equal": 9433,
      "g1": 9434,
      "gam": 9435,
      "hZ": 9436,
      "iF": 9437,
      "jum": 9438,
      "r2": 9439,
      "sj": 9440,
      "tQ": 9441,
      "tm": 9442,
      "xq": 9443,
      "unlocking": 9444,
      "optical": 9445,
      "teil": 9446,
      "meets": 9447,
      "States": 9448,
      "ibly": 9449,
      "vibr": 9450,
      "Dodom": 9451,
      "addresses": 9452,
      "refers": 9453,
      "fitness": 9454,
      "intelligent": 9455,
      "CPA": 9456,
      "damit": 9457,
      "Telkom": 9458,
      "macro": 9459,
      "Accepted": 9460,
      "Dodoma": 9461,
      "3R": 9462,
      "Ds": 9463,
      "Dx": 9464,
      "Eco": 9465,
      "GI": 9466,
      "L1": 9467,
      "Lh": 9468,
      "LED": 9469,
      "P6": 9470,
      "Self": 9471,
      "dann": 9472,
      "fd": 9473,
      "felt": 9474,
      "gro": 9475,
      "hb": 9476,
      "iN": 9477,
      "oe": 9478,
      "oquel": 9479,
      "v0": 9480,
      "vV": 9481,
      "xr": 9482,
      "onts": 9483,
      "itel": 9484,
      "livestream": 9485,
      "Chann": 9486,
      "Together": 9487,
      "ache": 9488,
      "extended": 9489,
      "interviews": 9490,
      "Marino": 9491,
      "advertise": 9492,
      "Seroquel": 9493,
      "filters": 9494,
      "Benchwarmerz": 9495,
      "ahoo": 9496,
      "agery": 9497,
      "expands": 9498,
      "Strategie": 9499,
      "homepage": 9500,
      "Country": 9501,
      "Prompts": 9502,
      "snap": 9503,
      "episodes": 9504,
      "flagship": 9505,
      "dreams": 9506,
      "zahlen": 9507,
      "movies": 9508,
      "MozPod": 9509,
      "instructions": 9510,
      "Cryptocurrency": 9511,
      "controller": 9512,
      "approximately": 9513,
      "Reshape": 9514,
      "713K": 9515,
      ",?": 9516,
      "8Z": 9517,
      "9f": 9518,
      "BB": 9519,
      "Ea": 9520,
      "HH": 9521,
      "QA": 9522,
      "QG": 9523,
      "Ua": 9524,
      "Vog": 9525,
      "WY": 9526,
      "Wp": 9527,
      "Wt": 9528,
      "ban": 9529,
      "bunch": 9530,
      "c1": 9531,
      "eat": 9532,
      "eurer": 9533,
      "hp": 9534,
      "md": 9535,
      "n7": 9536,
      "pes": 9537,
      "wL": 9538,
      "arif": 9539,
      "leak": 9540,
      "proves": 9541,
      "Italian": 9542,
      "myself": 9543,
      "promotes": 9544,
      "issued": 9545,
      "PlayStation": 9546,
      "involve": 9547,
      "indicators": 9548,
      "UGX": 9549,
      "appears": 9550,
      "lifecycle": 9551,
      "Ayr": 9552,
      "appreciate": 9553,
      "mitigate": 9554,
      "exceptional": 9555,
      "!?": 9556,
      "3d": 9557,
      "AD": 9558,
      "Ever": 9559,
      "LY": 9560,
      "N0": 9561,
      "Nak": 9562,
      "Tb": 9563,
      "XK": 9564,
      "Xy": 9565,
      "gg": 9566,
      "i8": 9567,
      "lf": 9568,
      "nQ": 9569,
      "np": 9570,
      "poll": 9571,
      "ql": 9572,
      "tV": 9573,
      "tones": 9574,
      "uu": 9575,
      "vS": 9576,
      "vZ": 9577,
      "wrote": 9578,
      "x4": 9579,
      "xu": 9580,
      "yS": 9581,
      "tops": 9582,
      "allocation": 9583,
      "loop": 9584,
      "Initi": 9585,
      "Feel": 9586,
      "azine": 9587,
      "weren": 9588,
      "holidays": 9589,
      "periods": 9590,
      "mindset": 9591,
      "definition": 9592,
      "discovery": 9593,
      "Talk": 9594,
      "DeepSeek": 9595,
      "Template": 9596,
      "offices": 9597,
      "princip": 9598,
      "homes": 9599,
      "Wednesday": 9600,
      "Association": 9601,
      "Ayrton": 9602,
      "'(": 9603,
      "4L": 9604,
      ";!": 9605,
      "Did": 9606,
      "Fit": 9607,
      "Gate": 9608,
      "Oa": 9609,
      "Wat": 9610,
      "fE": 9611,
      "mB": 9612,
      "uri": 9613,
      "xG": 9614,
      "yY": 9615,
      "imagery": 9616,
      "ules": 9617,
      "portal": 9618,
      "resulting": 9619,
      "hrt": 9620,
      "linking": 9621,
      "cerem": 9622,
      "Attend": 9623,
      "Ergebn": 9624,
      "mmmm": 9625,
      "Merchant": 9626,
      "spotlight": 9627,
      "employed": 9628,
      "footprint": 9629,
      "narrow": 9630,
      "Patrick": 9631,
      ",&": 9632,
      "3P": 9633,
      "3o": 9634,
      ":&": 9635,
      "Ce": 9636,
[...]
